[PAD]
[UNK]
[CLS]
[SEP]
[MASK]
!
"
#
$
%
&
'
(
)
*
+
,
-
.
/
0
1
2
3
4
5
6
7
8
9
:
;
<
=
>
?
@
A
B
C
D
E
F
G
H
I
J
K
L
M
N
O
P
Q
R
S
T
U
V
W
X
Y
Z
[
\
]
^
_
`
a
b
c
d
e
f
g
h
i
j
k
l
m
n
o
p
q
r
s
t
u
v
w
x
y
z
{
|
}
~
¡
£
¥
§
©
«
®
°
±
²
³
´
µ
¶
·
¸
¹
º
»
¼
½
Á
Ä
Å
Æ
Ç
É
Ó
Ö
×
Ø
Ú
Ü
ß
à
á
â
ã
ä
å
æ
ç
è
é
ê
ë
ì
í
î
ï
ð
ñ
ò
ó
ô
õ
ö
÷
ø
ù
ú
û
ü
ý
þ
Ā
ā
ă
ą
ć
Č
č
Đ
đ
ē
ė
ę
ě
Ğ
ğ
ĩ
ī
İ
ı
ļ
ł
ń
ŋ
ō
ŏ
ő
œ
ŗ
ř
Ś
ś
Ş
ş
Š
š
ţ
ũ
ū
ŭ
ż
Ž
ž
ơ
ư
ǎ
ǐ
ǒ
ǔ
ș
ɐ
ɑ
ɔ
ɕ
ə
ɛ
ɡ
ɨ
ɪ
ɯ
ɹ
ɾ
ʁ
ʃ
ʊ
ʌ
ʒ
ʔ
ʰ
ʲ
ʻ
ˈ
ː
˙
˚
́
̃
̞
̯
͡
Α
Β
Γ
Δ
Ε
Η
Θ
Ι
Κ
Λ
Μ
Ν
Ο
Π
Ρ
Σ
Τ
Υ
Φ
Χ
Ω
ά
έ
ή
ί
α
β
γ
δ
ε
ζ
η
θ
ι
κ
λ
μ
ν
ξ
ο
π
ρ
ς
σ
τ
υ
φ
χ
ψ
ω
ό
ύ
ώ
Ё
А
Б
В
Г
Д
Е
Ж
З
И
Й
К
Л
М
Н
О
П
Р
С
Т
У
Ф
Х
Ц
Ч
Ш
Э
Ю
Я
а
б
в
г
д
е
ж
з
и
й
к
л
м
н
о
п
р
с
т
у
ф
х
ц
ч
ш
щ
ъ
ы
ь
э
ю
я
ё
і
ј
ү
Ӏ
ө
ա
ե
յ
ն
ո
ր
ւ
ְ
ִ
ַ
ָ
ּ
א
ב
ד
ה
ו
ח
י
כ
ל
ם
מ
ן
נ
ס
ע
פ
ק
ר
ש
ת
آ
أ
ا
ب
ة
ت
ج
ح
خ
د
ر
ز
س
ش
ص
ط
ع
غ
ف
ق
ك
ل
م
ن
ه
و
ى
ي
َ
ِ
ْ
پ
ک
ی
क
त
न
प
म
य
र
ल
व
स
ा
ि
ी
ु
्
া
்
ก
ข
ค
ง
จ
ช
ณ
ด
ต
ท
น
บ
ป
พ
ม
ย
ร
ล
ว
ศ
ส
ห
อ
ะ
ั
า
ิ
ี
ื
ุ
ู
เ
แ
ไ
็
่
้
์
་
ာ
ု
း
်
ა
ე
ი
ლ
ო
რ
ს
ᄀ
ᄂ
ᄃ
ᄅ
ᄆ
ᄇ
ᄉ
ᄋ
ᄌ
ᄎ
ᄒ
ᄠ
ᄫ
ᄭ
ᄯ
ᅀ
ᅌ
ᅡ
ᅥ
ᅧ
ᅩ
ᅮ
ᅳ
ᅵ
ᆞ
ᆡ
ᆨ
ᆫ
ᆯ
ᆷ
ᆺ
ᇰ
ᚂ
ᚄ
ᚅ
ᚇ
ᚋ
ᚖ
ᚙ
᚛
᚜
ᠠ
ᠢ
ᠣ
ᠨ
ᠩ
ᠭ
ᠯ
ᠰ
ᠶ
ᡝ
ᡠ
ᡤ
ᡥ
ᡳ
ḥ
ṃ
ṇ
ṣ
ṭ
ạ
ả
ấ
ầ
ậ
ắ
ế
ề
ễ
ệ
ị
ọ
ố
ồ
ổ
ộ
ớ
ờ
ợ
ụ
ủ
ứ
ừ
ỳ
ỹ
ἀ
‐
–
—
―
‘
’
‚
“
”
„
†
‡
•
․
‥
…
‧
‰
′
″
‹
›
※
₂
₩
€
℃
ℓ
№
™
⅓
⅔
Ⅰ
Ⅱ
Ⅲ
Ⅳ
Ⅴ
Ⅵ
Ⅶ
Ⅷ
Ⅸ
Ⅹ
←
↑
→
↓
↔
↖
↗
↘
↙
↺
⇒
⇔
∀
−
∙
√
∞
∫
∼
≈
≒
≠
≤
≥
≪
≫
⊙
⋅
⋯
⌀
⌗
①
②
③
④
⑤
⑥
⑦
⑧
⑨
⑩
⑫
⑮
⑲
Ⓐ
ⓐ
ⓒ
ⓚ
─
━
│
└
┗
├
┠
┣
█
▒
■
□
▣
▨
▩
▲
△
▶
▷
▸
▼
▽
◀
◆
◇
◈
○
◎
●
◦
◯
◾
★
☆
☉
☜
☞
☠
☭
♀
♂
♠
♡
♣
♤
♥
♦
♧
♨
♪
♬
♭
♯
⚔
✦
✴
❄
❤
➔
➡
⟪
⟫
⭐
、
。
々
〇
〈
〉
《
》
「
」
『
』
【
】
〔
〕
〜
ぁ
あ
ぃ
い
ぅ
う
ぇ
え
お
か
が
き
ぎ
く
ぐ
け
げ
こ
ご
さ
ざ
し
じ
す
ず
せ
ぜ
そ
ぞ
た
だ
ち
ぢ
っ
つ
づ
て
で
と
ど
な
に
ぬ
ね
の
は
ば
ぱ
ひ
び
ぴ
ふ
ぶ
ぷ
へ
べ
ぺ
ほ
ぼ
ぽ
ま
み
む
め
も
ゃ
や
ゅ
ゆ
ょ
よ
ら
り
る
れ
ろ
わ
を
ん
ァ
ア
ィ
イ
ゥ
ウ
ェ
エ
ォ
オ
カ
ガ
キ
ギ
ク
グ
ケ
ゲ
コ
ゴ
サ
ザ
シ
ジ
ス
ズ
セ
ゼ
ソ
ゾ
タ
ダ
チ
ッ
ツ
ヅ
テ
デ
ト
ド
ナ
ニ
ヌ
ネ
ノ
ハ
バ
パ
ヒ
ビ
ピ
フ
ブ
プ
ヘ
ベ
ペ
ホ
ボ
ポ
マ
ミ
ム
メ
モ
ャ
ヤ
ュ
ユ
ョ
ヨ
ラ
リ
ル
レ
ロ
ワ
ヲ
ン
ヴ
ヶ
・
ー
ㄱ
ㄲ
ㄳ
ㄴ
ㄵ
ㄶ
ㄷ
ㄸ
ㄹ
ㄺ
ㄻ
ㄼ
ㄽ
ㄾ
ㄿ
ㅀ
ㅁ
ㅂ
ㅃ
ㅄ
ㅅ
ㅆ
ㅇ
ㅈ
ㅉ
ㅊ
ㅋ
ㅌ
ㅍ
ㅎ
ㅏ
ㅐ
ㅑ
ㅒ
ㅓ
ㅔ
ㅕ
ㅖ
ㅗ
ㅘ
ㅙ
ㅚ
ㅛ
ㅜ
ㅝ
ㅞ
ㅟ
ㅠ
ㅡ
ㅢ
ㅣ
ㅿ
ㆍ
㈜
㎏
㎑
㎒
㎛
㎜
㎝
㎞
㎡
㎢
㎥
㎾
一
丁
七
万
丈
三
上
下
不
与
丑
且
丕
世
丘
丙
业
丛
东
丞
両
两
並
个
中
丰
串
丸
丹
为
主
乃
久
么
义
之
乌
乎
乐
乗
乘
乙
九
乞
也
乡
书
乱
乳
乾
亀
亂
了
予
争
事
二
于
云
互
五
井
亚
些
亜
亞
亡
交
亥
亦
亨
享
京
亭
亮
人
什
仁
仇
今
介
仍
从
仏
仔
仕
他
付
仙
仟
代
令
以
们
仮
仰
仲
件
任
份
企
伊
伍
伎
伏
伐
休
会
伝
传
伯
伴
伸
伺
似
伽
但
位
低
住
佐
佑
体
何
余
佛
作
你
佰
佳
使
來
例
侍
供
依
侯
侵
便
係
俊
俗
保
俠
信
修
俱
俺
倂
倉
個
倍
倒
候
借
値
倫
倭
倶
倻
假
偉
偏
做
停
健
側
偵
偶
偽
傀
傅
傍
傑
傘
備
催
傳
債
傷
傾
僉
像
僑
僕
僖
僚
僞
僧
價
儀
億
儉
儒
償
優
儲
儿
兀
允
元
兄
充
兆
先
光
克
免
兎
児
兒
党
兜
兢
入
內
全
兩
兪
八
公
六
兮
兰
共
关
兴
兵
其
具
典
兼
冀
内
円
冊
册
再
冒
冕
写
军
冠
冥
冬
冰
冲
冶
冷
准
凉
凌
凍
凛
凝
凡
凤
処
凪
凰
凱
凶
凸
出
击
函
刀
刃
分
切
刊
刑
列
刘
初
判
別
利
别
到
制
刷
券
刹
刺
刻
則
削
剌
前
剛
剣
副
割
創
劃
劇
劉
劍
劑
力
功
加
务
劣
动
助
努
劫
勃
勅
勇
勉
勒
動
勘
務
勝
勞
募
勢
勤
勲
勳
勸
勿
包
化
北
匠
匡
匪
匹
区
医
區
十
千
升
午
半
卍
华
卑
卒
卓
協
南
単
博
卜
卞
占
卡
卦
卫
卯
印
危
即
却
卵
卷
卽
卿
厄
厚
原
厨
厭
厲
厳
去
县
参
參
又
叉
及
友
双
反
収
发
叔
取
受
叟
叡
叢
口
古
句
只
叫
召
可
台
叱
史
右
叶
号
司
吃
各
合
吉
同
名
后
吏
吐
向
吗
君
吟
否
吧
含
吳
吴
吸
吹
吾
呂
呈
呉
告
员
呢
周
呪
味
呼
命
和
咲
咸
哀
品
哈
哉
員
哥
哦
哭
哲
唄
唐
唯
唱
商
啊
問
啓
善
喆
喚
喜
喪
喬
單
喰
営
嗣
嘆
嘉
嘘
器
嚴
囊
囚
四
回
因
团
団
园
困
図
固
国
图
圃
圈
國
圍
園
圓
圖
團
土
在
圭
地
场
址
坂
均
坊
坐
坑
坝
坡
坤
坦
坪
垂
垈
型
垢
垣
埈
埋
城
域
執
培
基
堀
堂
堅
堆
堡
堤
堪
堯
堰
報
場
塊
塑
塔
塗
塘
塚
塞
塩
塵
塾
境
墓
増
增
墟
墨
墩
墳
壁
壇
壊
壓
壞
壤
士
壬
壯
声
壱
売
壹
壺
壽
备
変
夏
夕
外
多
夜
夢
大
天
太
夫
央
失
头
夷
奇
奈
奉
奎
奏
契
奔
奕
奚
奠
奥
奧
奪
奭
奮
女
奴
奸
她
好
如
妃
妄
妓
妖
妙
妹
妻
妾
姉
始
姐
姑
姓
委
姚
姜
姦
姫
姬
姿
威
娑
娘
娜
娥
婁
婆
婚
婢
婦
媒
媛
媤
嫁
嫉
嫌
嫡
嬪
嬰
子
孔
字
存
孝
孟
季
孤
学
孫
學
宁
宅
宇
守
安
宋
完
宏
宗
官
宙
定
宛
宜
宝
实
実
客
宣
室
宮
宰
害
宴
宵
家
宸
容
宿
寂
寄
寅
密
寇
富
寒
寛
寝
察
寡
寢
實
寧
寨
審
寫
寬
寮
寵
寶
寸
对
寺
対
寿
封
専
射
将
將
專
尉
尊
尋
對
導
小
少
尔
尖
尙
尚
尤
就
尸
尹
尺
尻
尼
尽
尾
局
居
屈
届
屋
屍
展
屛
属
屠
層
履
屬
屯
山
岐
岑
岗
岛
岡
岩
岬
岭
岳
岸
峙
峡
峨
峯
峰
峴
島
峻
峽
崇
崎
崑
崔
崖
崗
崙
崩
嵌
嵐
嵩
嶋
嶺
嶽
巖
川
州
巡
巢
工
左
巧
巨
巫
差
己
已
巳
巴
巷
巻
巾
市
布
帆
师
希
帖
帝
帥
師
席
帯
帰
帳
帶
常
帽
幀
幅
幕
幡
幢
幣
干
平
年
并
幷
幸
幹
幻
幼
幽
幾
广
庁
広
庄
庇
床
序
底
店
庙
庚
府
度
座
庫
庭
庵
庶
康
庸
庾
廉
廊
廟
廢
廣
廬
廳
延
廷
建
廻
廿
开
弁
弄
式
弐
弓
弔
引
弗
弘
弟
张
弥
弦
弩
弱
張
強
强
弼
弾
彈
彌
当
彝
形
彦
彩
彪
彫
彬
彭
彰
影
役
彼
往
征
待
很
律
後
徐
徒
従
得
從
御
復
循
微
徳
徵
德
徹
徽
心
必
忌
忍
志
忘
応
忠
快
念
忽
怒
怖
思
怠
怡
急
性
怨
怪
总
恋
恐
恒
恕
恚
恥
恨
恩
恪
恭
息
恵
悅
悉
悌
悔
悟
悠
患
您
悪
悲
悳
悼
情
惇
惑
惟
惠
惡
惱
想
愁
愍
意
愚
愛
感
愧
愼
慈
態
慎
慕
慚
慢
慧
慮
慰
慶
憂
憐
憑
憤
憲
憶
應
懐
懷
懸
懺
懿
戀
戈
戊
戌
戎
成
我
戒
或
战
戚
戦
戯
戰
戱
戲
戴
戶
戸
房
所
扁
扇
扈
扉
手
才
打
托
扮
扶
批
承
技
抄
把
投
抗
折
抜
护
报
抱
抵
押
拉
拍
拓
拔
拘
拙
招
拜
拝
括
拳
拾
持
指
按
挑
振
挺
捕
捨
捷
掃
授
掉
掌
排
掘
掛
採
探
接
控
推
揆
描
提
揚
換
揮
援
損
摂
摠
摩
撃
撤
撫
播
撮
撰
擇
擊
操
擔
據
擧
擬
攝
支
收
改
攻
放
政
故
效
敍
敎
敏
救
敗
教
敞
敢
散
敦
敬
数
整
敵
敷
數
文
斉
斌
斎
斐
斑
斗
料
斜
斤
斥
斧
斬
断
斯
新
斷
方
於
施
旅
旋
旌
族
旗
无
旣
日
旦
旧
旨
早
旬
旭
时
旺
旻
昆
昇
昊
昌
明
昏
易
昔
昕
星
映
春
昧
昭
是
昱
時
晃
晉
晋
晏
晟
晦
晩
普
景
晴
晶
智
暁
暉
暎
暖
暗
暦
暮
暴
暹
曄
曆
曇
曉
曙
曜
曰
曲
更
書
曹
曺
曼
曽
曾
替
最
會
月
有
朋
服
朔
朗
望
朝
期
木
未
末
本
札
术
朱
朴
机
杉
李
杏
材
村
杓
杖
杜
杞
束
条
来
杨
杭
杯
杰
東
杵
松
板
析
枕
林
枚
果
枝
枯
架
柄
柏
某
柒
染
柔
柚
柯
柱
柳
柴
柵
査
栄
树
栖
栗
校
栢
株
样
核
根
格
桂
桃
案
桐
桑
桓
桜
桥
梁
梅
梓
條
梦
梧
梨
械
梵
梶
棄
棋
棍
棒
棟
森
棲
棺
植
椎
椒
検
椿
楊
楓
楚
楞
楠
楡
楨
業
極
楷
楼
楽
榜
榮
槃
構
槍
槐
様
槪
槿
樂
樊
樑
樓
標
樞
模
樣
権
横
樹
橋
橘
機
橫
檀
檜
檢
櫓
櫻
欅
權
欠
次
欣
欲
欽
歌
歐
歡
止
正
此
步
武
歩
歲
歳
歴
歷
歸
死
殉
殊
残
殖
殘
段
殷
殺
殿
毅
毋
母
每
毒
比
毘
毛
毬
氏
民
気
氣
水
氷
永
汀
汁
求
汉
汎
汗
汚
汝
江
池
汪
汶
決
汽
沂
沃
沆
沈
沒
沔
沖
沙
沛
沟
没
沢
沫
沮
河
油
治
沼
沿
況
泉
泊
法
泗
泡
波
泣
泥
注
泰
泳
洋
洗
洙
洛
洞
津
洪
洲
活
派
流
浄
浅
济
浙
浚
浜
浦
浩
浪
浮
浴
海
涅
消
涉
涙
涯
液
涵
涼
淑
淚
淡
淨
淫
淮
深
淳
淵
混
淸
淺
添
清
済
渋
渓
渚
減
渠
渡
渤
温
測
渭
港
渴
游
渾
湖
湘
湛
湜
湯
湾
満
源
準
溝
溟
溥
溪
溫
溶
滄
滅
滉
滋
滑
滝
满
滿
漁
漂
漆
漏
演
漠
漢
漫
漸
潔
潘
潛
潜
潟
潤
潭
潮
澄
澈
澗
澤
澳
激
濁
濂
濃
濊
濕
濟
濡
濤
濬
濱
瀋
瀑
瀚
瀛
瀬
灌
灘
灣
火
灯
灰
灵
灼
災
炎
炫
炭
炮
炯
炳
点
為
烈
烏
烽
焉
焔
無
焦
焰
然
焼
煉
煌
煙
煥
照
煩
熊
熙
熟
熱
熹
熾
燁
燃
燈
燒
燕
營
燦
燧
燮
爀
爆
爐
爛
爪
爭
爱
爲
爵
父
爺
爽
爾
片
版
牌
牒
牙
牛
牟
牡
牢
牧
物
特
犬
犯
状
狀
狂
狄
狐
狗
狩
独
狭
狼
猛
猪
猫
猶
猿
獄
獅
獐
獣
獨
獲
獸
獻
玄
率
玉
王
玖
玩
现
玲
珉
珍
珠
珥
珪
班
現
球
琅
理
琉
琛
琦
琪
琮
琰
琳
琴
琵
琶
瑛
瑜
瑞
瑟
瑠
瑩
瑾
璃
璋
璘
璜
璟
璧
環
璽
璿
瓊
瓚
瓜
瓦
甁
甄
甑
甕
甘
甚
生
産
用
甫
田
由
甲
申
电
男
甸
町
画
界
畏
畑
留
畜
畠
畢
略
番
畫
異
畵
當
畿
疆
疇
疏
疑
疫
疾
病
症
痛
痴
療
癒
癡
癸
発
登
發
白
百
的
皆
皇
皐
皓
皮
盆
盈
益
盗
盛
盜
盟
盡
監
盤
盧
目
盲
直
相
盾
省
眉
看
県
眞
真
眠
眷
眼
着
睡
督
睦
睿
瞋
瞬
瞳
瞻
矛
矢
矣
知
矩
短
石
砂
研
砕
砲
破
硏
硬
碍
碎
碑
碧
碩
確
磁
磐
磨
磯
礎
礙
礪
示
礼
社
祀
祁
祇
祈
祉
祐
祖
祗
祚
祜
祝
神
祠
祥
票
祭
祿
禁
禄
禅
禍
禎
福
禑
禦
禧
禪
禮
禰
禹
禽
禾
禿
秀
私
秉
秋
种
科
秒
秘
租
秦
秩
称
移
稅
程
稙
稚
種
稱
稲
稷
稻
稽
稿
穀
穂
穆
積
穎
穢
穴
究
空
穿
突
窓
窟
窩
窮
窯
竇
立
站
竜
竝
竟
章
童
端
競
竹
竺
竿
笑
笛
笠
符
第
笹
筆
等
筋
筑
筒
答
策
筵
箋
箕
算
管
箭
箱
節
範
篆
篇
築
篠
篤
簡
簿
籍
籠
米
粉
粒
粘
粟
粹
精
糖
糧
糸
系
紀
約
紅
紋
納
純
紗
紙
級
素
索
紫
累
細
紳
紹
紺
終
絃
組
絆
経
結
絡
給
統
絲
絵
絶
絹
綏
經
継
続
綜
綠
綬
維
綱
網
綺
綾
綿
緊
緋
総
緑
緒
緖
線
緣
編
緯
練
縁
縄
縛
縣
縮
縱
總
績
繁
織
繕
繡
繩
繪
繫
繼
纂
續
纏
红
级
线
经
缺
网
罗
罡
罪
置
罰
署
罷
羅
羊
羌
美
群
義
羲
羽
翁
翊
習
翔
翟
翠
翰
翻
翼
耀
老
考
者
耆
而
耐
耕
耳
耶
耽
耿
聃
联
聖
聚
聞
聡
聯
聰
聲
職
聽
肅
肇
肉
肖
肝
股
肥
肩
肯
育
胄
背
胎
胜
胞
胡
胤
胥
胸
能
脂
脇
脈
脚
脣
脩
脫
脱
脳
腐
腕
腦
腰
腸
腹
膜
膳
膺
臘
臟
臣
臥
臧
臨
自
至
致
臺
臼
與
興
舊
舌
舍
舎
舒
舜
舞
舟
航
般
舰
船
艇
艦
良
色
艶
艾
芒
芙
芝
芦
芬
芮
花
芳
芸
芹
芽
苏
苑
苗
若
苦
英
茂
范
茅
茜
茨
茶
荀
草
荊
荒
荘
荷
荼
莉
莊
莫
菅
菊
菌
菓
菜
菩
華
菱
菴
萊
萌
营
萩
萬
萱
落
葉
著
葛
董
葦
葬
葵
蒙
蒲
蒸
蒼
蓄
蓉
蓋
蓬
蓮
蔘
蔚
蔡
蔣
蔭
蔵
蕃
蕩
蕭
薄
薇
薔
薙
薛
薦
薩
薪
薫
薬
薰
藍
藏
藝
藤
藥
藩
藻
蘆
蘇
蘊
蘭
虎
虐
處
虚
虛
虜
虞
號
虫
虹
蛇
蜀
蜂
蜜
蝕
蝦
蝶
融
螺
蟲
蟹
蠶
蠻
血
衆
行
衍
術
街
衙
衛
衝
衡
衣
表
衰
衿
袁
袋
袍
袖
被
裁
裂
装
裏
裔
裕
補
裝
裡
裳
裴
裵
裸
製
複
褒
襄
襲
西
要
覆
覇
見
規
視
覚
覧
親
観
覺
覽
觀
见
视
角
解
觸
言
計
訊
討
訓
託
記
訟
訣
訥
訪
設
許
訳
訴
訶
註
証
詔
評
詞
詠
試
詩
詮
詰
話
詳
詹
誅
誌
認
誓
誕
誘
語
誠
誣
誤
誥
說
説
読
誰
課
誼
調
談
請
諍
論
諡
諦
諫
諭
諱
諸
諺
諾
謀
謁
謂
謄
謎
謙
講
謝
謠
謨
謹
證
識
譚
譜
警
譯
議
護
讀
變
讐
讓
讚
让
记
译
话
语
说
请
谢
谷
豆
豊
豐
豚
象
豪
豫
豹
貝
貞
負
財
貢
貧
貨
貪
貫
責
貳
貴
買
貸
費
貿
賀
賁
資
賈
賊
賓
賜
賞
賢
賣
賤
賦
質
賴
贈
贊
赤
赦
赫
走
赵
起
超
越
趙
趣
足
趾
跋
距
跡
路
跳
踊
踏
踐
蹄
蹟
蹴
躍
身
車
軌
軍
軒
軟
転
軸
軽
軾
載
輔
輕
輝
輩
輪
輯
輸
輿
轄
轉
轍
轟
车
辛
辞
辟
辦
辨
辭
辯
辰
辱
農
辺
辻
込
达
迅
过
迎
运
近
返
还
这
进
远
连
迦
迪
迫
述
迷
追
退
送
逃
逆
透
逐
途
通
逝
速
造
逢
連
週
進
逸
遁
遂
遇
遊
運
遍
過
道
達
違
遙
遜
遞
遠
遣
遥
適
遮
遲
遵
遷
選
遺
遼
避
還
邇
邉
邊
邑
邕
邢
那
邦
邪
邯
邱
邵
邸
郁
郊
郎
郞
郡
部
郭
郵
郷
都
鄉
鄒
鄕
鄧
鄭
酉
配
酒
酷
酸
醉
醒
醫
醬
醴
采
釈
釋
里
重
野
量
金
釜
針
釣
鈞
鈴
鉄
鉉
鉢
銀
銃
銅
銓
銘
鋒
鋼
錄
錢
錦
錫
錯
録
鍊
鍋
鍵
鍾
鎌
鎔
鎖
鎧
鎬
鎭
鎮
鎰
鏞
鏡
鐘
鐵
鐸
鑄
鑑
鑛
铁
铺
镇
長
长
門
閃
閉
開
閑
間
閔
関
閣
閤
閥
閩
閭
閱
閲
閻
閼
闇
闕
闘
關
门
间
阜
队
阪
阮
防
阳
阿
陀
附
际
陈
降
限
陛
陜
陝
陞
陟
院
陣
除
陰
陳
陵
陶
陸
険
陽
隅
隆
隊
隋
階
隔
際
障
隠
隣
隨
險
隱
隴
隷
隸
隼
雀
雁
雄
雅
集
雉
雍
雑
雕
雙
雛
雜
離
難
雨
雪
雲
零
雷
電
需
震
霊
霍
霖
霜
霞
霧
露
霸
靈
靑
青
靖
静
靜
非
面
革
鞍
鞠
鞭
韋
韓
韩
音
韶
韻
響
頁
頂
頃
項
順
須
頌
預
頑
頓
領
頤
頭
頼
題
額
顔
顕
願
顚
類
顧
顯
频
風
风
飛
飜
食
飡
飮
飯
飲
飼
飾
養
餓
餘
餠
館
首
香
馨
馬
馮
駄
駅
駆
駐
駒
駕
駿
騎
騒
験
騰
驅
驗
驚
驛
驪
马
骨
骸
體
高
髙
髪
髮
鬪
鬱
鬼
魁
魂
魄
魅
魏
魔
魚
魯
鮮
鯨
鱗
鲁
鳥
鳩
鳳
鳴
鴨
鴻
鵬
鵲
鶴
鷄
鷲
鷹
鷺
鸞
鹽
鹿
麒
麗
麟
麤
麥
麻
黃
黄
黎
黑
黒
黔
默
黙
點
黨
鼎
鼓
鼠
鼻
齊
齋
齒
齡
龍
龐
龕
龙
龜
가
각
간
갇
갈
갉
감
갑
값
갓
갔
강
갖
갗
같
갚
갛
개
객
갠
갤
갬
갭
갯
갰
갱
갸
갹
걀
걍
걔
거
걱
건
걷
걸
검
겁
것
겄
겅
겉
겊
겋
게
겍
겐
겔
겜
겟
겠
겡
겨
격
겪
견
결
겸
겹
겻
겼
경
곁
계
곗
고
곡
곤
곧
골
곪
곯
곰
곱
곳
공
곶
과
곽
관
괄
괌
광
괘
괜
괭
괴
괵
괸
굇
굉
교
굣
구
국
군
굳
굴
굵
굶
굼
굽
굿
궁
궂
궃
궈
권
궐
궜
궤
궨
귀
귄
귈
귐
귓
규
균
귤
귯
그
극
근
글
긁
금
급
긋
긍
긔
기
긱
긴
길
김
깁
깃
깄
깅
깊
까
깍
깎
깐
깔
깜
깝
깟
깠
깡
깥
깨
깬
깰
깻
깼
깽
꺄
꺅
꺠
꺼
꺽
꺾
껀
껄
껌
껍
껏
껐
껑
께
껫
껴
껸
꼈
꼐
꼬
꼭
꼰
꼴
꼼
꼽
꼿
꽁
꽂
꽃
꽈
꽉
꽌
꽐
꽝
꽤
꽥
꽹
꾀
꾐
꾜
꾸
꾹
꾼
꿀
꿇
꿈
꿉
꿋
꿍
꿎
꿏
꿔
꿨
꿩
꿰
뀌
뀐
뀔
뀜
뀝
뀨
끄
끈
끊
끌
끓
끔
끗
끙
끝
끼
끽
낀
낄
낌
낍
낏
낑
나
낙
낚
난
낟
날
낡
남
납
낫
났
낭
낮
낯
낱
낳
내
낵
낸
낼
냄
냅
냇
냈
냉
냐
냑
냔
냘
냠
냥
너
넉
넋
넌
널
넒
넓
넘
넙
넛
넜
넝
넣
네
넥
넨
넬
넴
넵
넷
넸
넹
녀
녁
년
녈
념
녑
녓
녔
녕
녘
녜
녠
노
녹
논
놀
놈
놉
놋
농
높
놓
놔
놨
뇌
뇨
뇰
뇽
누
눅
눈
눌
눔
눕
눗
눙
눠
눴
뉘
뉜
뉠
뉨
뉴
뉵
뉸
뉼
늄
늅
늉
느
늑
는
늘
늙
늠
늡
능
늦
늪
늬
니
닉
닌
닐
님
닙
닛
닝
닢
다
닥
닦
단
닫
달
닭
닮
닯
닳
담
답
닷
당
닻
닼
닿
대
댁
댄
댈
댐
댑
댓
댔
댕
댜
더
덕
던
덜
덟
덤
덥
덧
덩
덫
덮
데
덱
덴
델
뎀
뎁
뎃
뎅
뎌
뎐
뎠
뎨
뎬
도
독
돈
돋
돌
돔
돕
돗
동
돚
돛
돠
돡
돤
돼
됐
되
된
될
됨
됩
됬
됭
됴
됸
두
둑
둔
둘
둠
둡
둣
둥
둬
뒀
뒈
뒤
뒬
뒷
뒹
듀
듄
듈
듐
드
득
든
듣
들
듦
듬
듭
듯
등
듸
디
딕
딘
딛
딜
딤
딥
딧
딨
딩
딪
딫
따
딱
딴
딸
땀
땃
땄
땅
땋
때
땐
땔
땜
땠
땡
땨
떄
떠
떡
떤
떨
떫
떳
떴
떵
떻
떼
떽
뗀
뗄
뗌
뗏
뗐
뗘
또
똑
똔
똘
똠
똥
똬
뚀
뚜
뚝
뚠
뚤
뚫
뚱
뛰
뛴
뛸
뜀
뜌
뜨
뜩
뜬
뜯
뜰
뜷
뜸
뜹
뜻
띄
띈
띌
띔
띠
띤
띨
띵
라
락
란
랄
람
랍
랏
랐
랑
랖
랗
래
랙
랜
랠
램
랩
랫
랬
랭
랴
략
랸
랼
량
러
럭
런
럴
럼
럽
럿
렀
렁
렇
레
렉
렌
렐
렘
렙
렛
렝
려
력
련
렬
렴
렵
렷
렸
령
례
롄
롈
로
록
론
롤
롬
롭
롯
롱
롸
뢰
뢴
뢸
룀
료
룔
룡
루
룩
룬
룰
룸
룹
룻
룽
뤄
뤘
뤠
뤼
뤽
륀
륄
륌
류
륙
륜
률
륨
륭
르
륵
른
를
름
릅
릇
릉
릎
리
릭
린
릴
림
립
릿
링
맆
마
막
만
많
맏
말
맑
맘
맙
맛
맜
망
맞
맟
맡
맢
맣
매
맥
맨
맬
맴
맵
맷
맸
맹
맺
먀
먄
머
먹
먼
멀
멈
멋
멌
멍
멎
멓
메
멕
멘
멜
멤
멥
멧
멩
며
멱
면
멸
몄
명
몆
몇
몐
모
목
몫
몬
몯
몰
몸
몹
못
몽
뫄
뫼
묀
묄
묏
묘
묜
묠
묭
무
묵
묶
문
묻
물
묽
뭄
뭅
뭇
뭉
뭍
뭐
뭔
뭘
뭡
뭣
뭥
뮈
뮌
뮐
뮤
뮨
뮬
뮴
므
믄
믈
믐
미
믹
민
믿
밀
밈
밉
밋
밌
밍
밎
및
밑
바
박
밖
밗
반
받
발
밝
밞
밟
밤
밥
밧
밨
방
밭
배
백
밴
밸
뱀
뱁
뱃
뱅
뱉
뱌
뱐
뱡
버
벅
번
벌
범
법
벗
벘
벙
벚
벛
벞
베
벡
벤
벧
벨
벰
벱
벳
벵
벼
벽
변
별
볍
볏
볐
병
볕
볜
보
복
볶
본
볼
봄
봅
봇
봉
봐
봤
봬
뵈
뵌
뵐
뵘
뵙
뵤
부
북
분
붇
불
붉
붐
붑
붓
붕
붙
뷁
뷔
뷘
뷜
뷰
뷴
뷸
븀
븅
브
븐
블
븨
비
빅
빈
빌
빔
빕
빗
빙
빚
빛
빠
빡
빤
빨
빰
빳
빴
빵
빻
빼
빽
뺀
뺄
뺌
뺏
뺐
뺑
뺘
뺨
뺴
뻐
뻑
뻔
뻗
뻘
뻣
뻤
뻥
뻬
뼈
뼉
뼘
뼛
뽀
뽁
뽈
뽐
뽑
뽕
뾰
뿅
뿌
뿍
뿐
뿔
뿜
뿡
쀼
쁘
쁜
쁠
쁨
쁩
삐
삑
삔
삘
삥
사
삭
삯
산
살
삵
삶
삼
삽
삿
샀
상
샅
새
색
샌
샐
샘
샙
샛
샜
생
샤
샥
샨
샬
샴
샵
샷
샹
샾
섀
섐
섕
서
석
섞
선
섣
설
섬
섭
섯
섰
성
섶
세
섹
센
셀
셈
셉
셋
셌
셍
셔
션
셜
셤
셧
셨
셩
셰
셴
셸
솀
솁
솅
소
속
솎
손
솔
솜
솝
솟
송
솥
솨
솩
솬
솽
쇄
쇠
쇤
쇳
쇼
쇽
숀
숄
숌
숍
숏
숑
수
숙
순
숟
술
숨
숩
숫
숭
숯
숱
숲
숴
쉈
쉐
쉑
쉔
쉘
쉥
쉬
쉭
쉰
쉴
쉼
쉽
쉿
슈
슉
슌
슐
슘
슛
슝
스
슥
슨
슬
슭
슴
습
슷
승
슼
슾
시
식
신
싣
실
싫
심
십
싯
싱
싶
싸
싹
싼
쌀
쌈
쌉
쌌
쌍
쌓
쌔
쌕
쌘
쌤
쌩
쌰
썅
써
썩
썬
썰
썸
썹
썻
썼
썽
쎄
쎈
쎌
쎠
쏘
쏙
쏜
쏟
쏠
쏨
쏭
쏴
쐈
쐐
쐬
쑈
쑤
쑥
쑨
쑹
쒀
쒸
쓔
쓰
쓱
쓴
쓸
씀
씁
씌
씐
씨
씩
씬
씰
씸
씹
씻
씽
아
악
안
앉
않
알
앍
앎
앓
암
압
앗
았
앙
앜
앞
애
액
앤
앨
앰
앱
앳
앴
앵
야
약
얀
얄
얇
얌
얍
얏
양
얕
얗
얘
얜
어
억
언
얹
얻
얼
얽
엄
업
없
엇
었
엉
엊
엌
엎
에
엑
엔
엘
엠
엡
엣
엥
여
역
엮
연
열
엷
염
엽
엾
엿
였
영
옅
옆
옇
예
옉
옌
옐
옘
옙
옛
오
옥
온
올
옭
옮
옳
옴
옵
옷
옹
옻
옼
와
왁
완
왈
왐
왑
왓
왔
왕
왜
왝
왠
왱
외
왼
욀
욍
요
욕
욘
욜
욤
욥
욧
용
우
욱
운
울
움
웁
웃
웅
워
웍
원
월
웜
웠
웡
웨
웩
웬
웰
웸
웹
웻
웽
위
윅
윈
윌
윔
윕
윗
윙
유
육
윤
율
윰
윳
융
윷
으
윽
윾
은
을
읆
읊
음
읍
읏
응
의
읜
읭
이
익
인
읺
일
읽
잃
임
입
잇
있
잉
잊
잌
잎
자
작
잔
잖
잘
잠
잡
잣
잤
장
잦
재
잭
잰
잴
잼
잽
잿
쟀
쟁
쟈
쟌
쟝
쟤
저
적
전
절
젊
젋
점
접
젓
젔
정
젖
제
젝
젠
젤
젬
젭
젯
젱
져
젼
졀
졋
졌
졍
졔
조
족
존
졸
좀
좁
좃
종
좆
좇
좋
좌
좍
좔
좡
좨
죄
죌
죗
죠
죤
주
죽
준
줄
줌
줍
줏
중
줘
줬
줴
쥐
쥔
쥘
쥬
쥰
쥴
즈
즉
즌
즐
즘
즙
즛
증
지
직
진
질
짊
짐
집
짓
징
짖
짙
짚
짜
짝
짠
짢
짤
짦
짧
짬
짭
짰
짱
째
짹
짼
쨋
쨌
쨍
쨔
쨩
쨰
쩌
쩍
쩐
쩔
쩜
쩝
쩡
쩨
쪄
쪘
쪼
쪽
쫀
쫄
쫌
쫑
쫒
쫓
쫙
쬐
쬬
쭈
쭉
쭌
쭐
쭘
쭙
쭝
쭤
쮸
쯔
쯤
쯧
쯩
찌
찍
찐
찔
찜
찝
찟
찡
찢
찧
차
착
찬
찮
찰
참
찹
찻
찼
창
찾
채
책
챈
챌
챔
챕
챗
챘
챙
챠
챤
챰
챱
챳
챵
처
척
천
철
첨
첩
첫
첬
청
체
첵
첸
첼
쳄
쳅
쳇
쳉
쳐
쳔
쳤
쳥
초
촉
촌
촐
촘
촙
촛
총
촤
촨
촬
최
쵸
춉
춋
추
축
춘
출
춤
춥
춧
충
춰
췄
췌
취
췬
츄
츈
츔
츙
츠
측
츤
츨
츰
츳
층
치
칙
친
칠
칡
침
칩
칫
칭
칰
카
칵
칸
칼
캄
캅
캇
캉
캐
캑
캔
캘
캠
캡
캣
캤
캥
캬
캰
컁
커
컥
컨
컫
컬
컴
컵
컷
컸
컹
케
켁
켄
켈
켐
켑
켓
켕
켜
켠
켤
켰
코
콕
콘
콜
콤
콥
콧
콩
콰
콱
콴
콸
쾅
쾌
쾡
쾨
쾰
쿄
쿈
쿠
쿡
쿤
쿨
쿰
쿱
쿳
쿵
쿼
퀀
퀄
퀑
퀘
퀜
퀴
퀵
퀸
퀼
큄
큅
큉
큐
큔
큘
큠
큥
크
큭
큰
클
큼
큽
킁
키
킥
킨
킬
킴
킵
킷
킹
타
탁
탄
탈
탉
탐
탑
탓
탔
탕
태
택
탠
탤
탬
탭
탯
탰
탱
탸
터
턱
턴
털
텀
텁
텃
텄
텅
테
텍
텐
텔
템
텝
텟
텡
텨
텼
톄
톈
토
톡
톤
톨
톰
톱
톳
통
퇘
퇴
툇
툐
투
툭
툰
툴
툼
툽
퉁
퉈
퉜
퉤
튀
튄
튈
튐
튕
튜
튠
튤
튬
트
특
튼
튿
틀
틈
틋
틍
틔
티
틱
틴
틸
팀
팁
팃
팅
파
팍
팎
판
팔
팜
팝
팟
팠
팡
팥
패
팩
팬
팰
팸
팹
팻
팼
팽
퍄
퍼
퍽
펀
펄
펌
펍
펐
펑
페
펙
펜
펠
펨
펩
펫
펭
펴
편
펼
폄
폈
평
폐
포
폭
폰
폴
폼
폽
폿
퐁
퐈
퐝
푀
푄
푈
표
푯
푸
푹
푼
풀
품
풉
풋
풍
퓌
퓔
퓨
퓰
퓸
프
픈
플
픔
픕
픠
피
픽
핀
필
핌
핍
핏
핑
하
학
한
할
핥
함
합
핫
항
핳
해
핵
핸
핼
햄
햅
햇
했
행
햏
햐
햘
햣
향
헀
허
헉
헌
헐
험
헙
헛
헝
헣
헤
헥
헨
헬
헴
헵
헷
헸
헹
혀
혁
현
혈
혐
협
혓
혔
형
혜
호
혹
혼
홀
홈
홉
홋
홍
홑
화
확
환
활
홧
황
홰
홱
횃
회
획
횔
횟
횡
효
횬
횽
후
훅
훈
훌
훍
훑
훔
훗
훙
훠
훤
훨
훵
훼
휀
휑
휘
휙
휜
휠
휨
휩
휫
휴
휼
흄
흉
흐
흑
흔
흘
흙
흠
흡
흣
흥
흩
희
흭
흰
히
힉
힌
힐
힘
힙
힛
힝
金
老
雷
不
拾
女
龍
劉
六
李
︎
️
！
＂
＃
％
＆
（
）
＊
＋
，
－
．
／
０
１
２
３
４
５
９
：
；
＜
＝
＞
？
＠
Ａ
Ｄ
Ｓ
［
＼
］
＾
ｍ
ｗ
｜
～
｢
｣
･
ﾞ
ﾟ
￥
￦
🇰
🇷
🌏
🏮
👑
🔞
🗡
😁
😃
😄
😇
😊
😎
🥛
🦎
##R
##동
##영
##상
##이
##ㅣ
##니
##지
##M
##을
##실
##내
##체
##육
##관
##었
##으
##며
##ㅅ
##였
##령
##부
##ㅌ
##ㅓ
##사
##ㅊ
##ㅔ
##계
##를
##루
##하
##ㄷ
##ㅏ
##버
##테
##려
##가
##e
##s
##a
##g
##란
##타
##제
##조
##기
##ㄹ
##어
##전
##트
##라
##ㅇ
##페
##든
##스
##갸
##브
##랴
##와
##의
##적
##용
##쟈
##에
##게
##수
##자
##화
##질
##일
##겨
##리
##범
##위
##공
##격
##키
##겠
##춘
##보
##다
##래
##ㅎ
##고
##장
##까
##원
##군
##색
##슈
##띠
##했
##냐
##쇼
##송
##등
##도
##종
##결
##대
##변
##우
##선
##교
##츄
##는
##D
##H
##V
##O
##터
##재
##뮤
##국
##인
##들
##ㄱ
##챠
##ㅐ
##열
##곤
##오
##퍄
##진
##굴
##벨
##막
##식
##서
##크
##로
##토
##모
##필
##아
##혹
##차
##면
##축
##증
##승
##햐
##정
##찰
##그
##작
##업
##샤
##미
##채
##쯔
##져
##놓
##은
##ㄴ
##단
##치
##렸
##네
##요
##1
##5
##만
##명
##셔
##카
##쿠
##운
##드
##즈
##답
##팩
##티
##ㄲ
##ㅈ
##칸
##죠
##본
##당
##족
##성
##러
##츠
##병
##항
##쟁
##ㅂ
##던
##더
##써
##시
##류
##학
##꼴
##견
##유
##킬
##과
##망
##총
##입
##ㅕ
##샷
##ㅖ
##람
##살
##권
##감
##금
##죄
##앙
##력
##노
##천
##백
##파
##l
##w
##텨
##7
##2
##c
##히
##툐
##쳐
##거
##뇨
##댜
##엽
##나
##여
##됴
##경
##야
##뵤
##텟
##구
##북
##혼
##마
##역
##손
##님
##농
##규
##ㅁ
##없
##회
##쭈
##임
##예
##비
##번
##한
##측
##산
##청
##궈
##C
##방
##몬
##캐
##취
##급
##무
##캬
##풍
##멤
##벼
##혀
##균
##았
##것
##추
##착
##찌
##걸
##있
##n
##플
##탐
##험
##중
##해
##0
##년
##안
##랜
##평
##료
##강
##남
##탸
##데
##알
##㈜
##현
##쥬
##렐
##프
##민
##h
##d
##m
##y
##되
##뿌
##녁
##저
##편
##밖
##믹
##t
##r
##p
##o
##i
##8
##4
##릿
##득
##왕
##활
##출
##불
##애
##킴
##문
##릴
##표
##짜
##혔
##바
##f
##틀
##언
##A
##T
##N
##톰
##ㅍ
##른
##쪽
##윙
##웠
##주
##궁
##커
##랑
##판
##k
##반
##랭
##け
##は
##し
##생
##행
##퓰
##심
##환
##켈
##레
##속
##너
##램
##☆
##담
##양
##처
##쭙
##잖
##룡
##익
##뷰
##습
##패
##팅
##박
##놨
##6
##법
##때
##매
##초
##B
##E
##코
##센
##u
##설
##곶
##ン
##소
##촌
##됩
##쨔
##9
##품
##검
##론
##b
##신
##빌
##곰
##형
##됐
##럼
##냥
##떼
##않
##갑
##귀
##읍
##률
##훈
##할
##별
##연
##삼
##닝
##봇
##S
##I
##피
##P
##L
##울
##씨
##호
##달
##벤
##뜨
##징
##멘
##り
##캇
##갈
##께
##U
##K
##싸
##움
##말
##뎌
##억
##략
##황
##ㅋ
##세
##숲
##째
##립
##월
##음
##턴
##쌍
##봤
##괴
##쩡
##녔
##킨
##투
##먀
##린
##퍼
##맨
##쯤
##름
##켜
##후
##닙
##왔
##녜
##큼
##함
##통
##젠
##약
##꼈
##밴
##난
##염
##팀
##밀
##벽
##포
##창
##3
##물
##락
##봐
##ㅑ
##F
##v
##튜
##닉
##큐
##렬
##개
##발
##클
##닥
##효
##태
##롭
##합
##휘
##술
##된
##탄
##특
##골
##엔
##따
##악
##르
##딜
##럽
##녕
##쥐
##석
##é
##q
##붙
##녹
##냈
##잎
##떨
##압
##워
##목
##챔
##웨
##될
##탑
##록
##객
##독
##배
##풀
##↑
##듀
##돌
##련
##윗
##쇄
##엉
##ㅉ
##간
##렌
##쿄
##㎡
##분
##е
##л
##ь
##м
##́
##н
##и
##날
##촉
##낸
##션
##싶
##톱
##춰
##갔
##근
##j
##홀
##누
##케
##멜
##협
##듯
##메
##헨
##イ
##ー
##ツ
##ガ
##デ
##엇
##접
##묘
##똥
##폭
##렉
##끌
##룬
##십
##봉
##쓴
##직
##헤
##G
##잔
##댓
##잇
##건
##틴
##멀
##델
##랙
##폴
##웍
##글
##픽
##향
##외
##머
##좀
##털
##광
##뻔
##륙
##림
##キ
##ュ
##ラ
##뿐
##몽
##윤
##복
##널
##J
##핫
##꺄
##곡
##뮴
##켓
##녀
##므
##준
##템
##겐
##슬
##닛
##침
##볼
##좌
##셰
##값
##긴
##뱌
##혁
##각
##줬
##칭
##텍
##첵
##디
##순
##욕
##짱
##짓
##헬
##량
##둔
##ë
##블
##펠
##존
##링
##빠
##념
##쓰
##펴
##ニ
##ョ
##점
##엘
##뉴
##책
##ò
##허
##쥰
##길
##친
##밥
##깔
##덴
##딩
##능
##뒀
##온
##룹
##껴
##멸
##탈
##희
##★
##졌
##퇴
##놈
##쿤
##탁
##솔
##먹
##꿈
##샘
##핑
##쎠
##펀
##냉
##찼
##샬
##뀨
##팽
##킹
##맹
##댁
##챈
##받
##절
##푸
##ㄸ
##같
##셨
##맞
##핵
##삭
##융
##몹
##젔
##듈
##폰
##멧
##새
##녘
##→
##맥
##끼
##텐
##슨
##딪
##륜
##두
##릭
##뱀
##뷔
##ㅆ
##탕
##ㅡ
##렁
##렘
##베
##찾
##몰
##x
##셋
##율
##켄
##최
##먼
##뭐
##앗
##빵
##흘
##둬
##컨
##앞
##쭉
##쉬
##싱
##웅
##켰
##넷
##헌
##끄
##느
##층
##맛
##낄
##폐
##콜
##さ
##い
##せ
##か
##몇
##닌
##틸
##엄
##レ
##ッ
##ド
##뀌
##ü
##빗
##놔
##탓
##둥
##벌
##숭
##컬
##낚
##핸
##W
##️
##완
##뼈
##킵
##훼
##꾸
##궤
##룩
##묵
##엡
##겟
##릉
##붕
##눌
##る
##こ
##と
##を
##밍
##て
##そ
##숙
##샐
##철
##택
##쿵
##섭
##Y
##렴
##웃
##퀴
##텔
##퀼
##렵
##씩
##팔
##롬
##극
##×
##꺼
##컷
##빔
##な
##ス
##パ
##マ
##못
##쁜
##X
##늘
##녈
##렀
##빙
##볶
##참
##ñ
##넨
##획
##암
##잉
##빨
##옙
##돈
##졔
##늑
##롤
##톨
##の
##エ
##ペ
##ロ
##쁠
##콘
##댔
##꾼
##꽃
##롯
##젝
##랩
##랫
##집
##척
##뜩
##떠
##떻
##덤
##℃
##븀
##슥
##낙
##♪
##눕
##˚
##젼
##떡
##례
##갱
##흐
##봄
##첨
##◆
##팃
##넣
##샵
##뿅
##셸
##줄
##즘
##팬
##흑
##젓
##셉
##칙
##덕
##휴
##줘
##む
##ら
##듬
##흡
##힙
##둑
##첼
##퓨
##뱃
##얼
##а
##뭉
##뢰
##찜
##런
##퉁
##맵
##č
##í
##탱
##덱
##z
##뒤
##꽂
##윈
##뜌
##뚜
##넓
##뱅
##앰
##땅
##큰
##ク
##ま
##っ
##빛
##햇
##넉
##칼
##렛
##텃
##밭
##렇
##찬
##뽕
##웹
##캔
##え
##홈
##컵
##꾜
##쵸
##닐
##쾨
##츨
##잡
##롱
##튠
##밌
##밋
##났
##끝
##ā
##랄
##충
##덩
##괸
##둘
##갤
##액
##맟
##꿀
##③
##납
##∼
##섬
##븐
##톈
##잠
##벳
##깥
##깡
##듐
##흔
##폼
##눈
##곱
##흥
##셀
##탬
##늄
##짐
##몸
##옥
##쩌
##혐
##빈
##넬
##됨
##쒀
##줌
##응
##웬
##뮬
##А
##솝
##찮
##Ⅳ
##랍
##톤
##확
##랐
##돼
##썸
##칠
##よ
##う
##짚
##섯
##옹
##즌
##р
##늬
##á
##딸
##홍
##α
##ν
##ε
##π
##ι
##σ
##τ
##η
##μ
##κ
##ο
##ί
##뺴
##숯
##튼
##틱
##럭
##또
##올
##뒷
##셜
##펜
##김
##쿼
##펑
##혈
##괄
##즐
##귤
##뗘
##뚝
##콩
##럴
##힝
##쳅
##ェ
##묄
##숍
##ァ
##テ
##ィ
##グ
##バ
##ト
##높
##힘
##옷
##씀
##챌
##シ
##춤
##큘
##논
##굽
##쿨
##뭇
##곽
##댕
##죽
##ᆞ
##ᆯ
##ᄫ
##ᆫ
##앵
##렙
##탠
##흉
##첩
##얀
##Q
##♥
##긁
##젤
##깎
##↘
##↙
##↖
##く
##す
##χ
##ύ
##ς
##ほ
##돗
##쩔
##콧
##겔
##얄
##찍
##퀄
##ㅃ
##댄
##엥
##뭄
##팟
##딘
##탭
##깃
##앱
##캄
##릎
##귄
##깅
##у
##쉽
##칫
##툰
##깝
##お
##윌
##딱
##ı
##컴
##ね
##밈
##ゥ
##ム
##쌰
##굿
##혜
##꺾
##톡
##ρ
##έ
##뎅
##튀
##냅
##둠
##ㅒ
##꿔
##ㆍ
##꼬
##냄
##읽
##놉
##↔
##끔
##쁘
##싯
##ó
##ì
##뎃
##み
##じ
##タ
##덧
##솟
##폿
##힐
##즉
##벗
##쏘
##뤄
##겸
##씌
##뛰
##칩
##팡
##륨
##땐
##좋
##섰
##겁
##휼
##ふ
##び
##ル
##쭘
##팁
##ギ
##カ
##ジ
##ピ
##ズ
##ノ
##ベ
##밤
##췌
##コ
##ち
##ゃ
##ん
##헴
##뎀
##넥
##쓱
##듣
##놀
##앤
##슴
##뻥
##짬
##ل
##ج
##د
##ي
##휙
##딧
##퀘
##샨
##낭
##뚀
##흠
##텀
##Z
##♬
##왈
##탤
##뿔
##ア
##メ
##も
##や
##멋
##펙
##및
##뭔
##쟌
##쉐
##헀
##쪼
##껌
##돠
##컹
##덜
##겹
##ú
##떄
##겼
##○
##で
##쳤
##룽
##믈
##뤼
##훅
##슷
##펫
##뇌
##깐
##팹
##솜
##ヒ
##リ
##～
##è
##푀
##チ
##갓
##ボ
##졸
##숫
##끈
##섞
##곳
##넘
##싹
##쨌
##쟝
##돋
##킷
##닷
##딴
##굳
##썬
##잣
##잘
##삽
##햘
##밟
##깨
##겜
##셈
##콥
##랏
##짤
##엑
##セ
##ビ
##챕
##ᅡ
##짝
##썼
##낫
##쇠
##넛
##섀
##⋯
##룸
##퀸
##짢
##쿰
##땨
##ブ
##モ
##넌
##멍
##툼
##▲
##캠
##훔
##꿨
##핀
##룻
##뚱
##펄
##캡
##뜯
##즙
##욘
##컸
##됬
##슐
##힌
##−
##쩍
##굼
##숏
##껄
##ゴ
##ャ
##낌
##㎢
##쑈
##♡
##콤
##릅
##눔
##쿱
##윕
##뉼
##ᄅ
##オ
##쥔
##쌩
##닭
##훌
##깬
##핏
##삐
##픈
##ิ
##ร
##ม
##ต
##퇘
##팝
##벙
##슛
##봅
##슘
##∞
##샅
##킥
##딕
##늉
##Ⅱ
##ː
##ˈ
##ɔ
##섹
##긋
##뚫
##꼼
##훗
##△
##●
##쨩
##に
##꿉
##풋
##헝
##톳
##о
##к
##뇽
##뺌
##ど
##륵
##떤
##쓸
##헉
##훙
##잽
##°
##벡
##밝
##ㅗ
##뫄
##텁
##й
##옆
##껍
##뵈
##ī
##밸
##캅
##き
##눠
##듭
##똑
##숴
##뺘
##─
##닫
##끗
##맘
##닳
##쁨
##ワ
##ポ
##ケ
##㎞
##엠
##プ
##¹
##숄
##잭
##쑤
##엣
##뉘
##낀
##촬
##쌓
##앉
##æ
##헐
##ž
##욱
##벅
##д
##ж
##ц
##믿
##씬
##뜸
##´
##쉼
##쳇
##웰
##ᄆ
##ᆡ
##빡
##끽
##ひ
##꼭
##옵
##め
##ダ
##ゾ
##뻐
##ゆ
##ハ
##쉴
##㎝
##깊
##덮
##ゅ
##ᄌ
##ᆺ
##틈
##얘
##탯
##퐁
##뤽
##빼
##췄
##뽑
##웁
##た
##깜
##볍
##à
##쾌
##젖
##↓
##숨
##엿
##튬
##꼽
##갯
##팜
##뮨
##눙
##뎐
##ウ
##썰
##얻
##캉
##ㅠ
##눗
##홉
##◇
##ด
##์
##쉘
##꺠
##룰
##첸
##ю
##г
##ナ
##궐
##댐
##낼
##펨
##つ
##뜰
##콰
##샾
##멕
##ū
##ś
##잼
##뒹
##옛
##캘
##냑
##フ
##띵
##쫓
##늦
##뚤
##т
##ч
##с
##찡
##붓
##숀
##칵
##з
##ш
##ы
##샌
##밑
##띔
##땡
##▒
##빅
##춧
##깽
##ä
##ō
##ě
##팍
##왓
##렝
##べ
##쿡
##콱
##흣
##뽁
##텡
##펭
##Т
##К
##뮈
##앨
##햄
##팸
##ə
##엌
##в
##냔
##횟
##캑
##■
##쑥
##퀵
##럿
##껏
##ろ
##갚
##셴
##갖
##볜
##뫼
##걀
##맺
##돔
##닦
##좁
##쀼
##↗
##듦
##█
##왁
##푼
##˙
##깁
##댑
##챘
##텝
##쎄
##뿜
##쭝
##닢
##긱
##륭
##ソ
##맙
##왜
##＝
##윽
##많
##쌀
##０
##촨
##ヘ
##탔
##둣
##쏠
##꿍
##늠
##ç
##묻
##랬
##첫
##옳
##촐
##덥
##㎛
##ᄒ
##я
##뉵
##넵
##썹
##れ
##멩
##≫
##샹
##ك
##ن
##횡
##옴
##숑
##딫
##맷
##씽
##륀
##셍
##і
##땀
##ְ
##ּ
##ע
##י
##נ
##랗
##क
##ा
##ल
##ु
##졋
##ず
##ã
##쫒
##큥
##욧
##켐
##턱
##챱
##͡
##ʲ
##굉
##빤
##뀐
##◎
##ぶ
##ү
##х
##э
##ミ
##サ
##샛
##€
##ė
##줍
##︎
##솥
##젯
##쭐
##벘
##ă
##ヴ
##흰
##ょ
##싫
##쬬
##씸
##뻗
##ぇ
##あ
##⊙
##ㅜ
##렷
##낳
##뻤
##윅
##ぎ
##띄
##챗
##웜
##ē
##쉰
##돕
##벞
##ø
##だ
##が
##헥
##뽀
##옌
##푹
##졍
##뺏
##캣
##픠
##묶
##펌
##쌤
##뇰
##튕
##맣
##깍
##릇
##껑
##긔
##ɪ
##빴
##켁
##붐
##훠
##퓔
##낯
##뾰
##겍
##θ
##υ
##λ
##찐
##뱐
##샙
##짖
##뻑
##샴
##눅
##＞
##⑫
##쿳
##쏭
##맡
##컁
##긍
##ɾ
##옉
##랸
##쫑
##밧
##β
##괜
##б
##꽁
##흙
##꿰
##젬
##ö
##슌
##넴
##わ
##삿
##힉
##닿
##딤
##ネ
##셩
##♤
##켕
##밨
##쿈
##콕
##←
##Г
##О
##Р
##퍽
##짭
##뜻
##휠
##챙
##Ⅲ
##Ω
##｜
##퓸
##괭
##짠
##ゲ
##쎈
##슭
##◀
##♂
##둡
##เ
##อ
##ช
##ี
##ย
##น
##ก
##ส
##툴
##썅
##ğ
##П
##У
##▽
##①
##괘
##딨
##믄
##ờ
##ヨ
##َ
##ْ
##و
##껀
##□
##땄
##녓
##ぃ
##ぺ
##딛
##ご
##롄
##쏜
##띨
##얗
##ぐ
##š
##꾹
##맑
##왼
##빽
##쌈
##웩
##쐐
##핳
##㎑
##⅓
##넜
##쮸
##츳
##И
##뱉
##❤
##ъ
##ぽ
##♀
##륄
##싼
##좆
##픕
##п
##ば
##펐
##쪄
##곧
##맏
##냇
##맜
##틍
##ή
##ヤ
##ù
##ᅩ
##웡
##땜
##댈
##꽝
##띤
##잿
##뺑
##팻
##츤
##♠
##²
##å
##붉
##싣
##ᄋ
##횬
##⑮
##왐
##ᄃ
##멈
##뤠
##ش
##ر
##ő
##쫄
##ω
##뮌
##￥
##뺀
##셧
##핍
##샜
##∙
##붇
##㎾
##팎
##ס
##ָ
##מ
##ַ
##쏙
##▷
##욤
##ý
##슝
##ホ
##ᅀ
##쩐
##낮
##ǔ
##뉜
##얌
##몫
##떳
##핌
##즛
##핼
##찔
##뉸
##뤘
##쩝
##م
##س
##ت
##خ
##닮
##ุ
##่
##พ
##ั
##ว
##ง
##쁩
##쌔
##뮐
##돛
##앜
##앳
##퀀
##Е
##Н
##Я
##옐
##ɹ
##ę
##픔
##벚
##ό
##º
##땃
##퓌
##찹
##껸
##Ａ
##죤
##ी
##헛
##똘
##ǎ
##Ⅰ
##펩
##⋅
##ᄉ
##꿇
##ß
##쉈
##굶
##ِ
##ع
##뀜
##½
##켑
##벵
##ᄯ
##톄
##ᆨ
##얹
##ユ
##ゼ
##텅
##큅
##팰
##ザ
##딥
##흄
##▼
##ụ
##ط
##ا
##ق
##덟
##１
##４
##틋
##±
##겡
##륌
##뷸
##î
##®
##컥
##Σ
##넹
##웻
##ψ
##♯
##썩
##ð
##ứ
##늪
##힛
##끙
##겅
##❄
##찢
##낵
##눴
##슾
##혓
##볏
##걱
##솀
##뢴
##몐
##궂
##깻
##쉔
##줴
##뻘
##켠
##훵
##곁
##갛
##벱
##됭
##ş
##쏨
##썽
##맴
##욜
##앓
##낱
##ㅛ
##떵
##⅔
##셤
##햅
##¸
##ʊ
##읜
##씁
##넝
##놋
##ォ
##②
##غ
##툭
##뀔
##ა
##ი
##ს
##팠
##팥
##얏
##궜
##δ
##™
##뱁
##뎠
##ぬ
##숱
##ᄎ
##ᆷ
##ᄠ
##ᅳ
##몯
##믐
##덫
##쏴
##ǐ
##쾅
##퉈
##젭
##꺽
##ᅥ
##뢸
##➡
##얕
##א
##ו
##ל
##🔞
##뻣
##뻬
##④
##갬
##أ
##ṭ
##첬
##썻
##뜬
##츙
##뽐
##윰
##땔
##ى
##ز
##ɛ
##ŋ
##â
##⇔
##ŏ
##┣
##쨋
##⑨
##ר
##ִ
##ה
##ᄂ
##캥
##ố
##촙
##Ⅴ
##섕
##끊
##ی
##ه
##쭤
##좃
##▩
##쏟
##씰
##ש
##튤
##ф
##왑
##ぁ
##삑
##ะ
##ท
##ไ
##ป
##า
##붑
##빻
##빳
##ざ
##げ
##र
##्
##챰
##ê
##Ф
##ぼ
##φ
##깼
##뵙
##ɑ
##겊
##엎
##ɨ
##￦
##ื
##ล
##แ
##ห
##ᠠ
##ᡥ
##ᠯ
##ᡳ
##ᠶ
##ᠨ
##헸
##ż
##÷
##뷘
##쳉
##뎁
##멌
##▣
##핥
##µ
##≥
##ぅ
##⚔
##🗡
##옮
##ά
##づ
##웸
##뷴
##ư
##걷
##맬
##씹
##ب
##ة
##ն
##ո
##ր
##ա
##챳
##랖
##ւ
##꼰
##ζ
##킁
##쥴
##촤
##뼘
##ᇰ
##꽤
##뱡
##ï
##왠
##ᠣ
##ᡠ
##ᠩ
##윳
##⭐
##큄
##₂
##ᅮ
##빚
##♣
##삘
##ि
##य
##स
##롸
##챤
##Ⅵ
##찧
##ف
##갭
##ת
##끓
##쌉
##γ
##Δ
##Α
##ô
##쫀
##튐
##３
##밗
##횔
##＋
##쑹
##ค
##씻
##้
##늙
##ɕ
##ב
##퐝
##훤
##펼
##좡
##ṣ
##Φ
##ń
##촛
##갠
##न
##ﾟ
##ե
##뜷
##헵
##Ü
##ぜ
##랠
##햏
##켤
##솩
##넙
##ᄭ
##녠
##툽
##◯
##뺐
##듸
##늅
##▶
##룔
##닼
##겄
##잃
##쾡
##จ
##ᠢ
##ᠭ
##ᠰ
##ℓ
##얽
##슉
##샥
##짧
##С
##ề
##ᅵ
##칰
##폄
##ơ
##☉
##삶
##춥
##먄
##큠
##엮
##Ø
##ɡ
##̞
##젱
##홑
##♧
##რ
##ლ
##몄
##ე
##팼
##볐
##Ю
##뺨
##บ
##ณ
##็
##ح
##껫
##쌌
##Š
##걔
##춉
##겉
##ᄀ
##뗐
##웽
##캰
##ص
##ᡤ
##ᡝ
##엾
##춋
##ﾞ
##Б
##뽈
##ぞ
##멥
##ㅢ
##쉑
##ё
##큭
##줏
##Ｓ
##츈
##뷁
##퉜
##갰
##İ
##प
##त
##닻
##맸
##ŭ
##쳥
##퉤
##윔
##щ
##ᄇ
##귈
##텼
##밞
##ộ
##ぷ
##ʻ
##뼛
##듄
##뗄
##샀
##굵
##촘
##벰
##５
##뒬
##뵐
##پ
##ʃ
##멓
##쓔
##Д
##찝
##넸
##쥘
##헷
##Л
##В
##뛸
##쌕
##얍
##ʔ
##뿡
##쉭
##콴
##깄
##돤
##ᚙ
##ᚂ
##ᚖ
##ᚋ
##ᚅ
##ᚇ
##얇
##É
##죌
##챵
##섶
##≤
##땠
##읭
##솅
##☠
##꽈
##맆
##ấ
##ח
##뎬
##숩
##잰
##ừ
##쩜
##ć
##்
##홰
##＜
##ʰ
##냠
##삯
##꿋
##췬
##묜
##쳔
##벧
##ị
##쨰
##맢
##곗
##ł
##³
##찻
##へ
##ヅ
##뎨
##ヌ
##뗀
##폈
##튄
##낟
##ぱ
##휩
##앴
##븨
##đ
##빰
##Э
##뷜
##뉠
##낑
##횽
##뼉
##̯
##ą
##떴
##ู
##כ
##်
##ן
##꾀
##Κ
##Γ
##２
##땋
##Ν
##¼
##Ё
##삥
##숟
##뭘
##㎜
##≠
##㎏
##◈
##퐈
##깟
##⑧
##쌘
##옻
##좨
##묭
##걍
##뭅
##꿩
##큉
##ｗ
##헣
##욥
##쒸
##겪
##빕
##ข
##া
##õ
##꼿
##Τ
##밉
##ʁ
##꼐
##〇
##㎒
##≒
##깠
##튿
##£
##√
##ｍ
##굇
##밎
##낍
##홋
##⇒
##옭
##ǒ
##ぴ
##쫌
##ḥ
##엊
##▨
##😃
##헹
##탉
##삵
##꽉
##œ
##잌
##Й
##ʒ
##🏮
##ậ
##옇
##Ⅹ
##Å
##귐
##ד
##멎
##쉥
##ώ
##ო
##녑
##짼
##Á
##짙
##ㄻ
##♭
##뭡
##졀
##Ö
##잊
##쬐
##ם
##갉
##큽
##ţ
##ệ
##삔
##㎥
##휀
##꽥
##쩨
##꺅
##뿍
##앍
##볕
##ả
##갇
##냘
##쪘
##돚
##컫
##쳄
##Β
##Θ
##ọ
##펍
##М
##젊
##겻
##룀
##휜
##ⓒ
##굣
##햣
##쇽
##튈
##ɐ
##│
##낏
##ᅌ
##갗
##━
##⑤
##ș
##ヲ
##ṃ
##ศ
##ầ
##Λ
##🌏
##ổ
##읺
##짊
##푯
##츰
##뺄
##뜀
##ũ
##멱
##좔
##숌
##뭍
##म
##☞
##ế
##뛴
##욀
##읏
##똔
##뭥
##Ⅸ
##옘
##텄
##ạ
##쟤
##آ
##똠
##ớ
##훨
##헙
##잤
##þ
##û
##폽
##캤
##롈
##☜
##ồ
##띌
##ỳ
##떽
##홧
##Ä
##פ
##쑨
##ř
##뗏
##벛
##귯
##슼
##훑
##ㄺ
##🇷
##🇰
##Ε
##뀝
##쎌
##갹
##쨍
##Ш
##ợ
##솁
##№
##궃
##Ú
##¥
##솽
##왱
##♨
##앎
##뜹
##칡
##₩
##쟀
##ㄳ
##Ā
##ө
##ξ
##З
##Ч
##◦
##잴
##Ц
##깰
##랼
##윾
##➔
##뒈
##봬
##∫
##좇
##ⓐ
##퀜
##짰
##＾
##겋
##셌
##ک
##≪
##ק
##व
##짹
##Ç
##ㅿ
##틔
##큔
##ᅧ
##윷
##뭣
##뵌
##쇤
##띈
##휑
##꿎
##괵
##옼
##츔
##🥛
##Ğ
##왝
##훍
##ぢ
##잦
##쇳
##넒
##ј
##😊
##쉿
##ㅚ
##ㅀ
##옅
##̃
##😁
##😇
##ㅟ
##퀑
##ㅄ
##Ⅶ
##뉨
##☭
##귓
##Ó
##ㄿ
##９
##콸
##ㅝ
##👑
##ㅘ
##솨
##♦
##쐈
##Æ
##찟
##∀
##몆
##푈
##Х
##됸
##Υ
##Μ
##Π
##Ι
##ု
##ာ
##း
##쭌
##Ž
##곯
##Ӏ
##쐬
##닯
##ĩ
##쯩
##탰
##Ο
##솬
##흩
##ʌ
##Đ
##쫙
##횃
##յ
##Η
##흭
##ㅙ
##Ş
##뗌
##죗
##ễ
##ṇ
##⑦
##낡
##Ｄ
##ɯ
##😎
##쾰
##욍
##껐
##쯧
##똬
##읊
##얜
##풉
##섣
##⑲
##뚠
##돡
##ㅞ
##궨
##≈
##꽌
##ắ
##꽐
##괌
##Ś
##Ρ
##ỹ
##묠
##늡
##툇
##좍
##븅
##ļ
##Ⅷ
##ㄼ
##꿏
##⑥
##└
##휫
##┗
##⑩
##😄
##섐
##✦
##넋
##ㄶ
##ヶ
##Ⓐ
##々
##Χ
##©
##엷
##ㄾ
##꽹
##푄
##ŗ
##✴
##솎
##씐
##├
##ủ
##Č
##뵘
##Ж
##휨
##ἀ
##┠
##ㄵ
##묽
##젋
##묏
##묀
##곪
##읆
##↺
##ㄽ
##짦
##떫
##ⓚ
##홱
##으로
##에서
20
201
##하는
있다
##지만
##ㅇㅣ
##ㄷㅏ
##었다
##이다
19
##ㅇㅔ
##니다
##하고
있는
##에게
##한다
##했다
10
200
##에는
##ㅎㅏ
때문
##ㄱㅏ
사용
##는데
##ㅈㅣ
##ㅅㅓ
##들이
##적인
##으며
한다
##면서
##이라
##적으로
##까지
##였다
##하게
경우
ㅇㅣ
##ㄹㅣ
##하기
##ST
때문에
##에서는
##er
##ㄱㅣ
대한
##스트
##하여
##레이
##리고
KST
12
이후
##부터
##다는
##해서
분류
자신
다른
11
##00
등장
문서
사람
공격
##되었다
것이
##0년
##8년
##습니다
토론
##다고
##들은
##들의
##ㅇㅓ
##대로
같은
일본
##on
##들을
##ㄹㅏ
##기를
한국
아니
##하면
##9년
##하다
##지는
##되어
정도
##라는
##으나
게임
##리는
##기도
##이나
그리고
##기에
##5년
링크
된다
##에도
문제
##으료
##in
##ㅅㅣ
이름
##되었
##7년
##에셔
하는
##ㄴㅏ
##6년
##라고
##하지
생각
18
하지만
시작
함께
199
않는
##an
그러
##학교
##되는
ㅅㅏ
##하였다
만들
##ㄱㅔ
것을
프로
가능
15
##4년
##re
위해
##국의
아이
##이트
##ㅎㅐ
있었
##하며
또한
##거나
들어
##리를
##ㅈㅏ
하나
선수
사실
##ㄴㅣ
##았다
##3년
모습
추가
##at
모두
##2년
이상
##된다
많은
위키
16
##ed
##ㅅㅏ
되었다
##합니다
모든
현재
없는
##ar
##력을
ㅇㅏ
##1년
##으면
##스터
따라
##지를
것은
##ㄷㅐ
캐릭
##다가
ㄷㅐ
가장
##보다
##al
ㅎㅏ
##스의
##ㅇㅔ서
17
당시
결국
다음
##ㅇㅏ
상황
내용
없다
##에ㅅㅓ
다시
##리즈
##or
##기가
14
##en
##기는
것으로
13
영화
상대
##지고
##하였
ㄱㅏ
나오
사이
관련
##이지
##리아
이용
##이었
##어서
##스를
했다
##이며
##처럼
편집
그런
##력이
많이
시즌
##이는
존재
플레이
캐릭터
시간
##라이
ㅅㅣ
##리가
##리스
상태
##백과
있으며
미국
198
##세요
##성이
세계
3월
해당
2018년
대한민
30
##이고
전투
##므로
4월
##에서도
상당
기록
##자가
시리즈
필요
##들과
수정
것이다
지역
ㄱㅣ
ㄷㅏ
자신의
##분류
##ct
##드를
있었다
변경
그렇
7월
하고
질문
일반
##입니다
##주의
경기
##이라고
22
##이라는
그러나
21
##he
##st
그래
##는다
위키백과
##이스
보여
11월
매우
##인이
정보
되었
25
##edi
12월
보면
진행
8월
ㅈㅏ
2015년
10월
##상을
9월
##ㅁㅕ
통해
링크를
이유
##하면서
1월
##들에게
참고
ㅈㅣ
##부분
스킬
방송
국가
##성을
이런
5월
작품
부분
##장을
좋은
물론
처음
다만
활동
##사를
2월
##it
특히
라는
##le
2019년
인물
##졌다
사건
6월
여러
역시
기술
23
##가지
##ic
아닌
ㄴㅏ
같이
이미
계속
##가는
##인지
대해
##시아
##ㅌㅓ
되어
않고
라고
##시키
위치
##다면
##ou
##했던
실제
서울
##스가
##인데
있을
나온
##인다
자주
##되고
않았
ㅈㅔ
##리에
되는
##ㅎㅏ는
##ㅈㅔ
기본
그의
주인
않은
##로는
##어진
있ㄷㅏ
있댜
##햐는
수도
효과
이전
2016년
##했고
##ㅊㅣ
일부
##ㄷㅔ
##해야
##et
##도록
있는데
인간
##드는
##지막
적용
거의
##ion
##르는
지금
##인의
축구
2017년
##정을
자체
중국
ㅁㅏ
##ch
감독
돌아
스타
197
2014년
모습을
라이
##개의
##스는
제작
##기로
등의
아니라
인해
24
##ㄹㅓ
##주는
찾아
##지가
##드의
동안
있고
있어
이야
##위를
##이션
##ㅈㅣ만
바로
이를
성공
대부분
환영
##BS
있으
##이었다
##ㅁㅏ
계정
##id
##린다
##이지만
##ot
위한
그는
2010년
달리
##로운
##에선
##도가
##라도
##와의
##하자
##있는
##es
##전히
기준
아무
결과
그냥
보고
##자의
##ㅇㅕ
주인공
의미
우리
개요
전쟁
의해
##장이
##사가
직접
에서
##rect
##트를
마법
대신
ㄸㅐ
이는
2013년
프랑
이동
##시에
포함
비슷
##어나
##하지만
1일
어느
##edirect
redirect
##ㄹㅕ
올라
대표
피해
레이
2012년
100
##th
##전을
마지막
##음을
##기의
높은
##대의
##자를
상당히
##도를
능력
애니
수준
##ol
##is
in
##식을
##el
##ㅎㅣ
관계
으로
확인
##수를
##거리
또는
제외
##명을
전체
있던
독일
##이가
연구
것도
알려
##am
##렸다
##시간
2011년
##진다
##ㅌㅏ
않는다
##ing
##도로
언급
##스로
##이댜
그녀
In
28
##om
정도로
카드
196
사용자
##랜드
배우
방법
개발
##ㅁㅣ
참조
##화를
##이드
가지고
##번째
출신
발생
26
조선
##점을
이것
리그
출연
운영
##등학교
##일에
##ㄹㅔ
삭제
##니댜
있습니다
영향
##회의
선택
##드리
##르게
대한민국
##사의
##되지
27
제1
좋아
##리의
지원
50
이에
설명
##들도
##ㅇㅔㅅㅓ
##대를
##ter
##ㅎㅏ고
##치는
##ㅇㅑ
그대로
##iv
음악
##프트
없이
##인물
공식
평가
있지만
그것
##어로
등을
만든
##ㅋㅣ
의견
##nd
정치
받아
타이
성우
최고
2009년
나타
##과는
시절
##수가
##정이
##자는
##과의
##lu
그리
##인을
여기
이러
역사
방어
2008년
일단
엄청
스토
29
과거
##로서
##리지
##de
ㅇㅓ
##as
##이자
크게
##이터
이어
##운드
결정
너무
중요
이루
##위원
##해서는
학교
##중에
##키는
동일
주세요
##ㄱㅓ
주장
유명
ㅇㅕ
학생
발매
ㅂㅣ
##스타
보인다
##그램
ㅁㅣ
##려고
인터
##했습니다
만들어
##ig
항목
##ㅇㅣ다
ㅎㅐ
##전에
194
원래
환영합니다
##한댜
##ㅅㅔ
도시
소속
##한ㄷㅏ
of
것에
##으로는
##이를
##지도
최대
우승
드러
멤버
##어가
##il
##스템
묻는
##명이
대한민국의
##상이
##치를
##리그
발견
많다
차단
하다
주로
떨어
##하는데
##명의
사망
최종
기존
프리
##하던
자신이
##신의
##오는
사회
ㅂㅏ
사랑
##와는
어떤
역할
월드
##ㄱㅖ
정부
##원이
##이크
##ㅂㅣ
##없이
##군의
##격을
조금
##마다
초반
증가
무시
제2
##통령
##르면
유닛
##나는
구성
경우가
이름을
드라
##이기
친구
형태
##ㄹㅐ
영국
레벨
이렇
행동
##아서
말을
설정
등장인물
장면
##주기
##였던
##ㄲㅏ
유저
##동안
##스와
31
195
오브
##지의
공개
관리
있다는
##ㅊㅔ
최초
##어를
새로운
대학
혹은
여성
##있다
##인은
##했댜
##ik
##도의
자기
40
##했ㄷㅏ
##는지
전부
##원을
##수의
목록
##했지만
정말
##준다
무기
강력
##ㅂㅓ
ㄱㅐ
##어난
ㄴㅐ
##으니
넘겨
##에서의
보존
정신
##서는
활약
나오는
노래
##만큼
중심
노선
특징
아직
되고
영상
##임을
불가
아버
##왔다
마찬
사용할
등이
당연
##im
기타
자세
유일
##문에
요청
##디오
하지
35
##이어
##자로
최근
##머니
파일
##했을
##ㅈㅐ
##메이션
참가
##벤트
알고
##ra
강화
이러한
부족
그런데
성능
##같은
지나
데미
##ro
비해
적이
보통
이번
간단
##점이
후반
##리카
문화
방식
##지로
##니아
상위
가진
##ㄴㅣ다
##이의
없었
##리어
br
##스크
감사
유지
성격
않았다
마음
도움
스트
##대에
##ㅋㅏ
시스템
여자
##드가
한번
32
##BC
대통령
사라
중앙
##구를
자유
생산
##치가
비교
아래
##물을
01
##하기도
##분에
##원의
##적이
##니ㄷㅏ
참여
##전에서
##ㅏㅏ
서로
인정
일본의
대회
드래
소환
앨범
##대학교
##니까
##us
표현
##상의
발표
##르고
영웅
특수
##버스
그림
##라의
##떻게
몬스터
남자
하면
##드로
##하교
the
교육
이때
국제
##햐고
프랑스
모양
##들에
정보를
같다
00
제대로
##이ㄷㅏ
ㄹㅏ
파괴
조건
이라는
실제로
주변
만큼
있다고
문제를
##ation
ㅇㅔ
먼저
스페
기능
그렇게
아이템
2007년
있어서
바람
##하시
##리기
개인
프로그램
작중
이렇게
ㅅㅔ
스테
동시에
##자인
슈퍼
##했으며
이벤트
##ㅊㅏ
##장의
설치
애니메이션
기사
경찰
힘들
사람이
##리오
가지
오히
ㄱㅓ
만화
##내는
##상으로
##트로
졸업
##도는
지속
KBS
##권을
원작
내용은
##clu
진출
##우스
보스
202
모델
전에
##ive
계획
기여
외부
완전히
##ㄱㅐ
##하려
데뷔
TV
대전
The
##clude
비슷한
해도
않아
반응
번째
##트가
승리
ㅅㅓ
보여주
회복
제공
##티브
좋다
특별
##간에
미국의
마찬가지
바라
사진
등록
##0년대
하며
참고로
##트의
비판
실패
다양
움직
##사는
##났다
##그를
굉장
링크에
##tern
담당
않을
드라마
쓰는
어려
샤용
##ㅇㅔ게
주의
각각
ㅅㅏ용
##림픽
출시
193
경유
##우는
##항을
버전
수록
과정
##대한
정책
##ㅇㅔ는
##유의
##었고
한편
때는
받고
정확
힘을
부산
##장은
문제가
##체를
이다
include
##대학
살아
##경기
장비
000
얼굴
##디어
심지
어떻게
바뀌
전혀
##지에
잘못
그래서
일이
##ow
##밖에
##ent
논란
현대
##간다
차지
##른다
##성의
##되었고
##적을
##했는데
사실상
결혼
##시켜
##ac
이제
09
고려
경제
편집을
나온다
단순
##시킨
국내
자동
건물
##ad
##대가
이야기
일으
있기
만나
##력은
특성
##문을
있게
판매
##들ㅇㅣ
패배
##나가
백과
때문이다
지방
공격을
##un
난이
마을
##선을
2006년
활용
오히려
유럽
##장으로
행정
##부의
발동
##제를
특정
##했다고
얼마
##idth
선발
##보면
불구
##이었던
차량
한ㄷㅏ
##젝트
한댜
##라면
하였다
##해주
드래곤
운동
ㄷㅓ
받은
작은
ㅍㅏ
소개
##수는
주요
##이브
연결
국민
##간의
확실
그래도
##나라
FC
받았
넘겨주기
##햐게
내려
##이기도
##의를
선거
St
대체
없어
입장
이해
##하거나
ㅋㅏ
##군이
후보
영향을
##시의
##계를
저작
##사전
가까
구조
width
요구
##부를
번역
ㄱㅔ
##감을
##운데
못한
위험
##op
##수로
기억
그를
02
##신이
##한다는
이탈
##ag
18일
##관을
##조건
해결
우주
방향
아니다
##었던
3일
##피언
덕분에
예정
아예
##하였고
독립
항공
메이
##심을
조직
생활
설립
충분
##ㅌㅣ
경험
##em
22일
없고
이름이
##신을
전문
관한
##화에서
2일
있었던
간단한
15일
바이
배경
추가함
순간
##ay
반대
불가능
03
##ur
올림픽
강력한
제국
영어
##성은
여담
자세한
##전이
2017
남아
##ㄴㅐ
##지지
##장에
어린
##행을
Ch
등장하는
판단
엄청난
##없는
10일
에피
수상
192
쉽게
##위키
했지만
질문을
블랙
##리와
따르면
경우도
아르
챔피언
획득
이라고
플레이어
##시오
분위
##방송
철도
연속
##단의
지구
2차
ㄱㅖ
밝혀
##화가
준비
##ir
##치고
나무
제한
심지어
더욱
되면
브라
##회를
##레스
##해도
굉장히
마이
게다가
하루
보호
강한
##했으나
검토
ㅌㅏ
폭발
가능한
현실
크로
##업을
##으로서
넘어
후에
##르크
##꺄지
##보다는
확률
##만한
방영
##였고
##학년
##고를
##대는
다이
5일
20일
30일
##학생
##겠지만
##로드
자신을
##os
들어가
작성
##적으료
과학
##ip
##에ㄱㅔ
중요한
##나마
28일
##사로
한정
가능하다
민주
패턴
명칭
##만을
25일
버스
소설
북한
본인
외국
시점
##제가
그룹
시청
##로도
##식이
나가
##되면
역할을
##부에
만약
가져
그려
훨씬
않다
작가
어렵
##광역
ㅊㅏ
##되면서
##로를
##량이
##위로
##명은
구간
##스럽
전용
운행
보내
출전
7일
따라서
해서
러시아
4일
##했다는
Intern
##더라도
##시를
##ㄷㅣ
시간이
##위에
##체가
04
하는데
크리스
다르
##km
가족
##전의
일정
무엇
상대로
받는
사용하는
##세기
##라가
초기
수비
비롯
다양한
스토리
26일
##ㄷㅏ고
다음과
유리
27일
##프를
##rch
14일
##비아
자연
##인트
##랴는
##소를
##ㄷㅏ는
##에셔는
08
##edia
##ㄹㅏ는
지하
계약
##댜는
60
17일
11일
##시키는
주는
##위원회
2020년
아마
21일
취급
MBC
보기
오른
##스러
작곡
##들로
나와
삼성
16일
##되며
가면
##어도
12일
13일
##만이
##학과
8일
##한테
##레이드
연합
스포
그가
없었다
##무를
상승
##um
##갔다
##ul
29일
##000
23일
##여서
24일
##원은
##시즌
##당한
기간
ㄹㅣ
##ㄹㅏ고
당연히
##이즈
전국
##라인
6일
스스로
낮은
##난다
감소
나왔
##게임
##겠다
처리
야구
감사합니다
##만에
9일
조합
되지
문제는
것입니다
##치로
공연
191
퀘스트
히로
19일
느낌
적을
싱글
인구
##소드
인천
못하고
##신다면
지정
##Bot
백과사전
공동
##선의
##켓몬
어디
건설
45
2005년
##장에서
가는
보는
물리
##ㅈㅓ
연습
##리로
Internet
##트는
마찬가지로
##군은
봇의
##rchive
##시는
각종
##버린
##듯이
##놓고
유니
엔딩
##군을
##FA
동료
Wik
항상
도망
편이다
##대표
##기와
07
불구하고
말이
##ㅍㅏ
ㅂㅐ
##Archive
InternetArchive
InternetArchiveBot
반면
##타를
아주
##ut
프로젝트
##종의
##원으로
어머니
하이
ㄸㅏ
발전
IP
성장
제3
부탁
모르
하여
##사와
##개를
##함을
검은
##ㄹㅣ고
이상의
##부ㅌㅓ
##비스
내용을
##제로
##시켰
정식
보이
쓰러
추정
전반
모두의
나는
표기
중에
36
##조차
달성
##자와
사고
체력
모드
사람들이
##한다고
생존
##카이
여전히
##정도
33
월드컵
##히는
출처
##igh
생성
##지와
##이로
신경
2016
만드는
문서를
절대
##리키는
##레벨
##화국
##니는
ㅇㅣ후
##란드
##운동
질문이
##단을
이휴
##진을
##하기를
일을
아들
로마
##위가
알아
ㄹㅔ
이유는
05
등장한다
이적
기준으로
##관이
##ce
##으면서
##수록
수가
##냈다
나라
지휘
##특별
들고
##로의
1년
밖에
업데
##ㅌㅐ
부활
전설
받았다
싸움
혼자
##까지는
것ㅇㅣ
##되기
위에
봇이
말한다
##10
제목
위치한
오늘
##ri
오래
##라운드
##이라면
약간
##점으로
보다
##리티
전작
##상에
그나마
SK
##기고
##od
##려는
목표
##계의
##ㅂㅏ
##인으로
등으로
이루어
대부분의
##지게
2004년
현재는
결승
포켓몬
것과
있다면
제보
##구의
완전
##이면
분루
불류
시도
진짜
생긴
ㄷㅐ한
##세를
수정됨
##아가
경우는
발사
##and
가격
06
찾아보
##호를
##까ㅈㅣ
##프로
##가를
ㅈㅓ
##으므로
괜찮
##남도
##되었으며
스피
##ER
##스티
계열
점을
미션
##력으로
가운데
##으ㅁㅕ
##스에
파워
장착
##사에
종료
##으머
보이는
##선이
이유로
신청
##라서
개념
라인
ㅂㅓ
위해서
배틀
목소
##리면
ㄷㅔ
발언
두고
필요한
##ia
확정
선정
나머
기관
업데이트
비행
##서를
##해진
이끌
##상은
위의
##겼다
##하ㄱㅔ
##겠습니다
버그를
환경
##사항을
##ㅎㅏ게
적은
ㄷㅏ른
안정
##세대
##이버
댜른
##혔다
##ers
##말로
##자기
##ㅍㅣ
##지기
##시가
##일을
자체가
음반
근접
##ong
##습니댜
ㅁㅐ
최소
메인
통합
##주를
##보니
관련된
부르
이름은
내가
소재
사용자가
##고는
##이에
반복
유명한
이외
있으니
Re
되돌
가능성이
연기
좋지
하기
##네요
있거나
비밀
합니다
##역을
도쿄
ㅇㅖ
정의
공격력
얻을
기업
잡아
참조해
경쟁
##겠다고
##지션
불리
공간
하자
지난
500
##px
##문화
##ng
검토해
부정
은퇴
피해를
##비를
ㅍㅣ
공중
ㅅㅏ람
##ap
##무리
ㅈㅐ
능력을
##하다는
아이돌
문셔
샤람
문ㅅㅓ
일행
도입
제외한
##시마
집중
엘리
##제의
여기서
관해서는
##인가
##ㅊㅓ
기반
정도의
경상
해외
##에게는
##쪽으로
완성
##나게
대구
자리
대미
수행
예를
다운
##oc
##광역시
소련
아프
##주고
SBS
출생
##ak
실험
변경사항을
이라
##어의
분명
##으로써
누구
있으면
34
접근
연출
클래
미래
##체의
동물
##지면
이탈리아
분노
##수한
종교
##냐는
##즈의
해야
남성
뒤에
직업
##려서
인용
우선
지도
##동을
##나이
평균
역대
변화
명령
없을
##료를
##ㄷㅓ
##ㄱㅣ도
80
##로가
에너
##되었댜
##는ㄷㅔ
훈련
한다는
언제
경우에는
점이
##mm
##력의
갖고
인터넷
and
더불
##요일
##으로도
##단이
개최
반드
수정하는
인도
##TV
##만의
##햐면
##나의
별로
##ㅎㅏ면
복귀
##하다고
이로
사람은
트리
동생
2002년
##ight
탈출
건담
가끔
죽은
##자들이
히어로
##량을
잠시
##ov
텔레
예상
안에
최고의
##스코
최강
##햐기
종류
##시로
중간
37
타고
##진이
##교육
수는
70
38
##되었ㄷㅏ
소모
##카와
질문에서
제일
##ㅏㅏㅏㅏ
##하ㅇㅕ
대사
2년
##원에
1위
##하어
언론
##햐여
적용했습니다
야니
##ㄲㅏ지
한국어
##부는
##ㅎㅏ여
##민주
컴퓨
들여
##하나
빠른
대상
마스터
교통
게임을
물건
않게
군사
##많은
31일
39
아버지
##르트
정작
이용해
지지
##온다
시대
무슨
##스토
##ate
2000년
1회
2003년
##크래
##고등학교
촬영
전통
되었고
의외
##ㄱㅣ를
클리어
열린
1개의
##주시
자랑
불러
##부로
수정했습니다
끝나
정상
55
##스테
상황이
##부가
##점은
죽음
vs
제품
소녀
전차
본인이
2015
##도에
시험
##내고
##ㄷㅐ로
##모토
##드립
##크로
바뀜
미사
##ㅇㅔ서는
에피소드
##법을
##었는데
##체는
##ie
몇몇
##호선
##정한
##라를
이곳
심각
##적은
##분이
##음에도
전기
달려
등장한
압도
##어들
식으로
극장
있으나
새로
##심이
##십시오
한국의
하면서
##연구
##같이
##어버
##에ㅅㅓ는
##았던
고양
##스케
제가
확장
사실을
툐론
##문의
##물이
문서나
특이
상당한
그리스
기대
반드시
제안
##북도
48
##크를
##보는
스파
인터뷰
##개월
보유
2018
지배
블루
정리
작업
국회의
시작했다
##비가
##성에
못했다
##드른
기동
남은
##성과
하늘
대해서
하였
대중
변신
##화의
##져서
##초에
##야마
바꾸
##냐고
상관
##ㅇㅣㄷㅏ
##롭게
시설
##일이
기념
지상
1차
상황에서
추천
못하는
##ㅌㅔ
##되ㅇㅓ
##위는
배치
##금을
##20
근처
##형을
##리게
##임이
따로
190
듣고
정규
##됐다
팀의
도착
##문이
요소
##댜고
스테이지
파이
높다
FI
##기관
선언
완벽
주민
##비전
무장
##력과
의한
2014
##ub
##스러운
LG
##인과
등에
효과를
##하라
이와
##되여
스포츠
다르게
포기
##화된
있도록
##적으로는
케이
300
했던
안전
##공격
싸우
끝에
보니
##가가
적절
회사
범죄
##로부터
교체
##치의
전략
가수
장난
점점
거기
나름
##었지만
ㅁㅔ
장소
근거
##가와
##실을
##식으로
의견을
사업
##랴고
##ab
##ㅈㅕ
##텐츠
##어야
##판을
처음으로
종종
베이
##가의
##아의
업그
##ㄴㅔ
인한
살해
그린
##ㄴㅣㄷㅏ
않으면
제시
암살
있지
아키
하게
알게
직후
##이머
##다운
##부터는
사이트
있었고
##러스
##술을
유일한
부모
아카
본래
없다고
##움을
없다는
종족
프레
때문ㅇㅔ
찾아보세요
##방을
##미를
제거
ㄸㅐ문에
무시하기를
일어나
90
##ㅁㅔ
제보하기
##뷰터
##드라
##었ㄷㅏ
고정
마리
경기도
개선
문서는
##sp
클럽
화면
수많은
선생
##리며
나왔다
달라
주소
존재한다
##호가
##어진다
기계
갑자기
쓰고
여담으로
본격
표시
지켜
##하의
시전
##낸다
##트라
en
머리
##og
##정은
나이
대단
##ound
##감이
##에만
레드
이걸
중에서
도중
충돌
말에
미니
##타로
사냥
42
##ㅈㅣ는
##사용
##ang
##부텨
부여
ㅍㅐ
묘사
##ist
상징
##마의
유튜
삼국
대학교
##승을
그ㄹㅣ고
그리교
태양
##크의
##트리
##보를
##석을
##조의
야마
충격
##정에
느끼
##스럽게
운용
##이냐
더불어
##어는
경기를
43
오프
##그룹
앞에
2001년
##문서
받을
##하다가
##ㅇㅔ도
##터를
##랐다
나머지
##크래프트
그럼
##정의
시민
정됴
최초의
##분을
그녀의
바랍
##탄을
##더니
권한
만들기
유사
##드와
##동생
트위
내용이
사례
가르
된댜
대응
바람에
광주
##대전
중반
통과
붉은
전개
다크
시간을
도와
##율이
활동을
올려
##시대
충분히
형성
##페이지
##쪽에
##레ㅇㅣ
위협
##구가
롯데
중심으로
했으나
##왕의
생명
##르의
##햐교
바라신다면
인식
##if
디지
##용으로
조사
평범
된ㄷㅏ
사이에
상태로
조종
되는데
기존의
##니스
##세의
탈락
##일러
##시킬
44
다루
나중에
##단에
##받은
방문
47
햐지만
이게
아니고
적극
##었다고
##임의
ㅊㅓ
기원
##미가
##이란
엔진
##햐지
##하였으며
비롯한
41
##av
없지만
##이와
지적
##로그
스위
사람을
승강
소유
나올
나서
타입
ㅋㅐ
2013
##약을
##지역
##ㄲㅔ
많아
##세가
##질을
##학자
##마저
사무
##었댜
인기
기다
##으냐
성향
과정에서
##이닝
##ard
속도
지닌
##론을
##주로
시리즈의
##리스트
둘러
공포
모습이
##렀다
했는데
벌어
아니면
노동
##경을
##받는
##한다면
##art
맞추
최초로
1번
뛰어난
각성
연재
##이니
서술
희생
성우는
임명
있었는데
##드러
중화
준다
것이라고
##해를
육군
##으ㄴㅏ
##선수
##계가
실시
여기에
불과
빠르게
워낙
##니티
비중
위ㅎㅐ
스톰
추측
##cm
##해셔
##먼트
##두고
대화
##리야
##AN
대기
돈을
##라스
이란
##철도
일어
규모
##야말로
금지
##하도록
##로우
기본적으로
2번
##석이
파티
점령
##든지
속성
맞는
로봇
##ㄹㅣ는
최후
이쪽
도로
맞춰
##레이션
##ㅁㅐ
황제
살인
##전쟁
ㅎㅏ는
던전
소년
이야기를
##시면
저지
조작
46
무한
카운
말씀
문서가
도전
##대료
정당
합류
있었지만
소리
##명으로
##세계
##소년
##스카
##보고
그걸
아군
##차를
##것도
명의
경기에서
##들어
햐는
본인의
2012
데이
##이라도
이건
51
개봉
빨리
생각해
이름으로
##습니ㄷㅏ
영혼
투입
포지션
듯한
의외로
3년
##ine
##방의
##키의
라이브
##습ㄴㅣ다
2개
종합
##했기
##레인
##과를
II
PC
##님이
오스트
##AR
1999년
##ss
민족
##졌고
##려면
스크
회피
채널
대형
일반적인
적의
##호는
문ㅈㅔ
손을
상세
##하댜
일러
투수
오랜
가까운
국가대표
##장과
##겠다는
불안
투표
보인
밝혔다
그ㄹㅓ
분리
굳이
등급
홈런
앞으로
나타나
ㄸㅐ문
##ㅇㅔㄱㅔ
에이
진입
공략
평소
대해서는
이것은
옵션
##위의
산업
49
52
요시
1998년
##하ㄱㅣ
봐도
스코
고등학교
##음이
보아
전환
사용한다
##식의
들ㅇㅓ
##과학
##우의
##48
##쳤다
분야
목차
영입
전사
##지면서
오버
광고
주고
##군요
점프
ㅇㅣ름
패치
Al
##역으로
알렉
컴퓨터
장갑
글을
왕국
연장
팀은
ㄱㅏ능
지키
##ore
ㅇㅐ
반대로
무조건
##11
##우가
진화
##드에
##ath
##하ㄷㅏ
않지만
고속
##대회
구분
갸능
타격
힘든
노력
##리온
##50
##ill
##자에
단체
##ec
페르
##나다
날아
빠져
데이터
오르
자리를
아시
##신은
고대
##미의
남편
##공항
것처럼
중단
##파트
주목
다소
외에도
##님의
##all
##였지만
이기
##였댜
탓에
아내
##ㅂㅐ
jp
신뢰
특유의
했고
내부
몸을
점은
##용한
##ㄴㅓ
구매
뿐만
2019
##산을
카이
##원에서
##당의
##전은
##었을
차이
하드
디자인
초대
##였으나
##물의
상황을
##였ㄷㅏ
싫어
##프가
##센터
연주
이름의
비난
요리
희망
##ON
위원
56
ㅅㅣ작
FIFA
코스
##안을
##방에
그에
뉴스
부분이
지금은
##았고
이르
필살
언어
##기술
거부
도움을
##복을
##플레이
서울특별
보조
개그
대결
마르
##트와
##ver
##정으로
만한
##정보
알려져
##ell
의하면
to
54
##마를
##권이
##구에
빼앗
58
포함한
##ㄴㅕ
##무라
바랍니다
충청
교수
바탕
차이가
##지라
장기
##PD
##일의
검색
바다
목숨
##차가
##ㅁㅓ
##버렸다
무려
##코의
함ㄲㅔ
짧은
##햐다
타카
끝난
##회가
##용을
59
높아
Sp
189
그때
후속
##나를
플래
##단계
외모
Le
##진의
1997년
53
1996년
불편
##나와
EX
어둠
##루스
##고속
단순히
외국인
##자들의
뉴욕
스페인
##이므로
##겨나
##화에
잉글
문서의
상태에서
국회의원
추ㄱㅏ
##변경
##치게
입고
##AT
ㅊㅣ
##도와
다행
타이틀
도움이
ㅇㅏ니
##미디어
동맹
포르
무리
일러스트
자료
앞서
##제는
확보
한글
해군
##br
##전으로
위키백과의
아ㄴㅣ
꾸준
컨셉
이사
모임
##규모
통일
야이
글로
##보기
붙어
지금까지
홍콩
화염
2010
뛰어
##버린다
1000
jpg
##정부
해석
치명
##만으로
다니
특성상
자체는
##주가
##놓은
##우고
##ㄱㅕ
##권의
가치
##지에서
입학
##ast
##에됴
범위
##리트
시기
##크가
애초에
프료
경향
개의
효과가
##형이
##용이
유튜브
사람의
##로스
57
작동
##자들은
##다른
##스탄
##골을
오토
##독교
##으로부터
뮤직
공항
따른
##ㅎㅏ다
리더
##ity
##시키고
능력이
##도우
올리
이들은
선보
##ok
##량의
모르는
그들의
치료
원정
99
Sh
##미널
말하는
극장판
그만
##생활
고통
##est
당신의
누군
##호의
멸망
떠나
구축
되면서
보병
미드
거쳐
##적이다
이후로
##지며
이론
##관은
##세트
허용
일반적으로
광역
소비
바뀐
여름
사는
##기사
##포를
좋아하는
##수도
부하
##계에
##트롤
조건이
프로듀
클리
##역이
1995년
2011
측면
##트남
##합니댜
약속
관광
##스턴
대표적인
##인민
##ㅎㅏ기
3개
받지
카메
##회에
걱정
현재의
##프의
오리지
책임
##ae
기체
생물
미리
##마트
공산
그야말로
ㅊㅔ
솔로
유일하게
##품을
##각을
##군에
##공을
개편
버그
팀이
왼쪽
건축
텔레비전
제4
모험
##마가
곳에
##ㄸㅐ
탑재
##됩니다
##단은
공통
##마자
1개
75
##습을
##답게
유래
##시브
##관의
의심
좀비
황금
강제
필요가
##악의
훼손
어려운
이하
막아
##분의
제외하면
없습니다
사기
사람들은
##교통
탄생
젊은
##격이
나누
설계
세이
코믹
##조를
본선
그것을
##ort
불리는
핵심
궁금
##된댜
뚀한
분석
전자
아름
편성
##our
Con
##제에
까지
##per
죽을
##스에서
한다고
##타가
##량은
위키백과에
오후
폐지
표준
이나
##구는
부르는
경영
##ne
ㄱㅔ임
##인들이
개통
##사카
사상
서비스
전해
이용한
Th
##연히
##ㄹㅣ를
궁극
반영
출발
##키가
마침
##일보
가서
ㅂㅔ
있었으나
##ㅇㅣ나
##ant
거짓
##자표
카드를
##ipedia
눈에
##락을
돌아가
##시티
방해
울산
##즈를
##라이더
##패를
##된ㄷㅏ
취임
##한데
팀을
##파일
2회
그레이
마치
##란을
말했다
일은
시나
가리키는
홈페이지
##판이
보컬
Ne
##ack
보였다
##문은
먹고
##하신
2000
2008
동아
글의
ㄷㅣ
하나의
시내
##ㅎㅐ서
끌어
##력에
##리다
논란이
귀족
nb
목적
갤러
사태
VS
지명
달러
강원
하나로
평범한
예전
거두
##도시
모습으로
##리자
##식은
만족
##토리
명예
대비
작전
nbsp
데미지
게시
or
맞아
기획
보여준다
##받고
##보ㄷㅏ
되기
150
##ob
ㅅㅐ
임무
저항
부대
확실히
멀티
##시켰다
시행
전달
아스
##너스
얻어
제기
2009
라디오
단독
때까지
Inc
ㅎㅣ
##학을
디자
용병
선슈
손에
##버리는
크리에
직전
출판
그저
붕괴
나이트
액션
승리를
1994년
##PC
최대한
##등을
De
밴드
내에서
##형의
##었으며
형태로
장면이
##웠다
35px
포인트
본인은
필수
##프레
##선거
사항
##리안
##때문에
비교적
성적
완료
독자
##IA
바닥
아시아
난이도
거기에
##에게서
##이상
받는다
3번
##은행
##톨릭
##류를
때마다
없기
증거
##동이
부상
##카드
동일한
국립
상표
##바람
발휘
효율
스케
##래도
아는
화제
봉인
HP
##이던
##적이고
문서에
##키를
##바이
사쿠
부터
##거냐
대문
##렸고
체력이
유도
##다니
당선
인간의
스탠
##IN
오리
마사
차례
가정
93
Wikipedia
행복
##언을
때의
##공화국
##워드
게임의
##ㅎㅏ였다
이것이
여행
때도
아쉬
진영
잠깐
##햐였다
기원전
오른쪽
##ph
##었으나
밸런
해제
##시킨다
서버
전술
제압
앞에서
끝내
습격
오리지널
인기를
##해ㅅㅓ
##이었고
##해졌다
말았다
##하니
꽤나
##스포
ㅌㅐ
##라우
어울
##가로
마음을
먹는
되었댜
##연합
베이스
그녀는
나쁘
인생
저는
가깝
##원과
실행
아무리
항목이
보급
집단
##개로
##imedia
##시스
##미는
딱히
생기
법률
홍보
##모를
ㅇㅑ
ex
레전
말고
없댜
대답
컨트롤
##나무
##교의
무사
저격
비록
돌려
주연
적용될
위ㅋㅣ
##물로
1990년
##세이
거대한
##지방
스카
댜시
##하ㅈㅣ
무너
모티브
##구역
소프트
##하였댜
알려진
##하므로
감안
쉬운
##되었는데
부담
되었ㄷㅏ
##하려고
##ge
이전에
##라와
흡수
##면ㅅㅓ
오오
ㅅㅏ실
커뮤
##디아
샤실
##ㅍㅔ
수호
패러
득점
만다
흔히
제주
##치기
공화국
붙여
서브
갸장
잡고
파트
예술
##하러
##것이
수원
91
이후에
올리기
공작
교황
강조
지니
##IC
##시고
##우를
본편
브레이
##함이
아프리카
ㄱㅏ장
##소녀
##보다도
##하였ㄷㅏ
통한
10년
##되었던
##회에서
개조
하ㅈㅣ만
훌륭
있으므로
실질
##사건
활약을
Found
브라질
Se
폭탄
조정
듯하다
##먼즈
##성도
영국의
##상태
맞고
논의
ㅎㅏ지만
##였으며
되며
##하려는
태어
안내
##스킬
##ff
##성으로
##차로
평화
더블
##힌다
사용한
마무리
신인
제조
멀리
모아
탑승
##ㅎㅏ지
##루의
##러가
##르기
병사
아라
스펙
##직을
없어서
눈을
시작한
##어주
##당이
##이언
데미지를
##OS
##르가
만들어진
st
##ry
기독교
설득
외교
의견이
현ㅈㅐ
회원
##ㅍㅓ
전라
##일은
Foundation
인사
방식으로
##하였으나
추진
묘든
##발을
##터가
데려
##말을
아나
PS
##모리
판타
일어난
##자리
김성
##소가
지하철
히트
##지자
400
없ㄷㅏ
아사
##군과
대공
##친다
##AM
골드
만에
자신은
연방
점에서
##선은
##였는데
##지컬
##디션
길을
사격
당장
##대와
떨어진
관심을
##까요
단점
##었다는
##오의
소울
거리
##AL
증명
로그
##PS
하위
착용
##면을
스킬을
사령
의사
평가를
나무위키
##즈가
주문
대륙
##질이
##되기도
관통
가입
이승
##인쇄
기술을
##을때
##중학교
시작한다
##서의
갖추
오픈
저작권
Wikimedia
##어요
그곳
건강
온라인
##하ㅁㅕ
1위를
열심
악마
##하머
거주
##토의
##ㅎㅏ며
서울특별시
##워서
유희
##루가
상황에
##고가
##루를
##능력
날려
##마스
##햐며
ㄷㅏ음
위반
구단
바꿔
타임
행동을
1992년
뒤로
계산
외에
이들
보도
64
일본어
##말기
##류의
복잡
댜음
시각
##토를
역전
의원
##있던
##공의
##qu
##거ㄴㅏ
집에
없으며
##수와
##비의
겨울
##ㄱㅓ나
##자들
##리나
Un
##드립니다
온갖
모스
목적으로
하냐
##시피
약관을
연계
##오스
부분은
지옥
##특수
SS
실력
##이치
파악
싶은
##학급
네덜
##회는
##전사
없게
부른다
##초등학교
얼마나
##크는
##PDF
아니지만
##트에
##국이
##최근
제국의
##판의
명중
해주
##자에게
살아남
##족의
생각하면
##ㄱㅣ에
##OR
##론이
##®는
장애
##인쇄용
Wikipedia®는
연예
라이트
토론을
가게
##기인
##이티브
수준의
##티어
죽이
0에
약한
듀얼
##에서만
시티
히어로즈
##12
창작
##동에
##타는
지침
##려한
##야의
##카의
상처
ㅋㅐ릭
##속도
등등
수밖에
##히고
저작자표
로켓
다르다
##께서
민간
주도
아침
나오지
후쿠
힘이
다운로드
크리
안습
감염
##터의
##구로
구입
베트남
올라가
##증을
데스
못한다
##면셔
##ㅈㅣ를
몰아
이전의
집안
아ㅇㅣ
##ㅉㅐ
만난
인기가
1993년
##피아
CV
Ar
##로로
##랜드의
스킨
재미
##되는데
영구
##무원
유우
##주년
##느냐
그동안
##스ㅌㅓ
이유가
트레이
##영화
추가적인
##프는
공을
얘기
많았
지급
##ain
##해보
##19
보상
일종의
##se
##와서
장점
고민
만들고
독일의
하ㄴㅏ
군인
중국의
에스
한화
김영
##이랴
##화에서는
##시장
##스텨
##선에
AP
##사이
에이스
##모로
컨텐츠
##AC
않으며
네이버
##이었으나
##바로
않기
##ㅈㅣ고
##ㅇㅖ
No
안녕
초반에
업그레이드
png
페이
인지
발음
##타임
바탕으로
##판에
등과
보수
정체
캐릭텨
거절
사과
국가대표팀
공주
위키미디어
향해
다름
참고하
##유를
단일
그게
코너
##서관
##만은
않았고
베르
##기지
##시와
문제로
음식
이슬
안타
행사
오는
철도역
했댜
마련
이스
##설을
당ㅅㅣ
규정
##관계
##치지
스웨
##되자
188
##ian
##에게도
기자
##FC
##베르
가슴
de
1991년
레인
##유는
보이지
않습니다
버튼
얼음
당황
마음에
됩니다
게이
##VE
받게
조지
국가에
브랜드
플라
An
##세는
##age
##스트를
애매
중립
느껴
##하자면
승격
것이라
박근
제5
신체
상대를
##진은
세트
##것을
유키
##회사
아메
변호
자살
##명한
위에서
##즈키
조각
##스트로
소유의
마이크
등판
행적
후지
4년
두산
정글
간의
ㅋㅣ
고전
ㄴㅔ
##비는
단계
##스키
##조가
재료
플ㄹㅔ
에어
속에
고유
스페셜
##면에
못해
바르
임시
120
##류가
중인
경계
##소의
동일조건
놓고
테러
원하는
댓글
계승
##아웃
신의
동일조건변경
살짝
##PG
걸쳐
##오고
때에는
콤보
한때
2007
##임에도
##병을
##ith
살고
위로
납치
은근
사람들
기능을
형제
아닙
부분을
사용해
##하기로
##동차
##아버
헌법
스타일
미친
top
뭔가
어찌
지역의
주력
했ㄷㅏ
이후에는
심각한
이미지
그럴
##모든
수학
##점에
이상한
뒤를
센터
##상에서
맞지
안되는
갤럭
의혹
위하여
##미야
사건이
걸로
공유
오프닝
##별로
##사업
ST
##의로
##시기
우승을
대장
처음에는
##리아의
##이야
##고의
즉시
세워
##치에
답변
##타의
##PDF로
꾸준히
누가
쓰이는
##면서도
받아들
넓은
로드
근무
건너
##선으로
게임이
성인
랜덤
##ㅋㅔ
늘어
분쟁
##움말기
##요즘
화제최근
채용
##만원
##ㄱㅣ는
##이었지만
동의
트랙
##지원
생겼
##관리
##ㅊㅓ럼
##급의
스튜
##오프
상대의
스프
##수에
특별한
##자면
런던
재생
스탯
메탈
인근
동원
얻은
##률이
##할때
카페
화살
열심히
BG
기어
##쳐럼
널리
상ㄷㅐ
불명
기초
위키에서
##겨진
뒤집
##단으로
##ㅍㅐ
상대적으로
중이다
붙잡
생겨
2006
##관으로
박정
##마을
##간이
돌격
##목을
re
세력
##교를
원거리
중학교
##디언
절반
문학
행성
##니의
유로
CD
##스팅
##기에는
##당을
##세오
추가로
결성
원칙
것으료
말해
나오고
국방
##AS
무대
##카가
녀석
아웃
속에서
방송을
수록곡
역으로
편이
단어
##ㅏㅏㅏㅏㅏㅏㅏㅏ
통신
시장
클로
원래는
##민국
근데
회의
생각을
소리를
##웨이
##점에서
##시리즈
체육
1인
무력
압박
교환
상대가
##즈는
라며
이래
순위
의식
##권에
##사키
참전
##ial
필드
배신
크다
협력
KT
드라이
취소
##데이터
동방
빨간
SP
겨우
중재
내에
계신
##왕이
간다
에너지
##ber
우려
##악한
등은
수용
밀려
말한
관리자
추갸
##어져
회전
##되었으나
어러
##끼리
코드
##버리
1988년
##ld
걸어
##고유
운전
그녀를
쓰지
무기를
##시한
##LC
어느정도
ㅌㅔ
최상
커먼즈
##먹는
##오가
여기를
방식을
열차
관계를
신설
해방
하나는
기록했다
##30
크리에이티브
8강
##부와
있ㅇㅓ
한자
있으머
정치인
만들었다
방법을
사용하고
엄청나게
MS
있으ㅁㅕ
안드로
##ㅇㅣ트
재능
##역의
당시의
순식
2루
##해졌
것이댜
5년
##랭크
정확한
ㅊㅐ
와중에
영원
예선
중간에
곳이
미나
의도
##EC
배경으로
디스
못할
끝까지
엑스
입은
유전
##ark
##가능
##사용자
웹툰
##ㅎㅏㄱㅔ
##ㅂㅔ
1989년
방향으로
##로서의
적에게
##허락
##화로
발달
양산
##댜가
수입
##장인
##체로
##코가
##토가
물어
디지털
물러
##동의
ㅋㅓ
##중인
##산업
IS
인공
세종
암흑
##BO
##ㅎㅕ
##바일
자동차
에게
모임요즘
넘는
상향
신규
##ㅅㅔ요
##야가
괄련
##ㅇㅣ고
가톨릭
노출
##책을
##ㄷㅏ가
##방이
##해진다
거대
따ㄹㅏ
옮겨
##리언
따랴
말도
박살
고향
관심
##해의
180
##표를
그다
맡은
##16
등록되어
단지
파견
프랑스의
UE
ㅍㅔ
부족한
1987년
불법
두번째
그들은
보여준
많고
##중한
##트워
입단
추가된
힘들다
감독의
해체
드립
나쁜
매일
그만큼
그와
화장
##형은
##판은
##ly
##부에서
행위
전의
##긴다
존재하는
##화는
연극
최악의
되자
com
소멸
역임
모션
비디오
괴물
검사
##ㅇㅣ는
##서가
##국을
NC
프린
##작용
##오를
되찾
##세한
캐나다
옆에
카즈
편입
루트
김정
##마리
##웨어
##유가
##구나
무난
메가
나카
대놓고
대립
그것이
신성
적도
##프리
##VP
링크문서
ㄴㅓ
폭풍
만들기PDF로
ㅎㅏ고
정보위키
옛날
제외하고
보기임의
##합ㄴㅣ다
##시코
##경찰
##전차
Com
신문
##움말기부
##항공
##데미
인상
##영상
##15
공급
쓰면
##달라고
##ㅊㅕ
해금
동시
2위
속도가
##기만
추락
일제
공부
##라리
지역에
##적의
조성
맞이
##부르크
##메달
##합니ㄷㅏ
동작
해설
##oy
문을
##받아
부진
출장
이리
이들의
US
##일랜드
경기에
기회를
##니어
##동으로
##게도
##치와
##입니댜
흔들
맡았다
##시설
##민의
대다
66
많ㅇㅣ
ㅅㅣ즌
##ure
여겨
모자
##피스
65
##OL
덕에
츄가
방패
##ess
##관에
##요는
아우
존ㅈㅐ
##오카
사건을
##니가
선배
당한
윌리
청년
##ㄲㅏㅈㅣ
##료는
보여주는
타이밍
됐다
입력
##자들을
에서는
전직
직원
밀어
러브
트레
고급
##여진
초월
현상
때부터
##ach
##테인
for
##ind
이것을
어렵다
아오
사이에서
스웨덴
본격적으로
피아
맡고
##역에
전형
고등
위해서는
것이었다
같습니다
오스
목숨을
기록을
하던
당시에는
세월
버프
4개
연애
후에는
마나
##까지의
##쪽의
학원
체포
변형
3회
테마
괜찮은
ㅈㅏ신의
스마트
##스에게
##건을
##ory
격투
##ment
모듀
ㅃㅏ
레이저
돌진
##전에서는
합의
학살
보ㅇㅕ
프리미
얻는
상업
공격이
##시다
합쳐
쟈신의
##ED
Be
##불류
바뀌었다
##아이
##인에
##안타
나의
##나요
구현
화이트
##18
##라며
돌파
al
출신의
Bl
갑옷
제임
##분루
##한의
상ㅌㅐ
캐릭터가
박근혜
그래픽
메이저
수리
그렇지
이뤄
##았을
ㅇㅏ이
줄어들
미사일
프로토
##당은
정도는
응원
##ect
없었던
##사람
##셔는
없음
작용
전체적으로
깊은
##스톤
계정이
##ink
규칙
경ㄱㅣ
시나리오
대로
푸른
##부대
감정
##샤를
내내
북미
상호
동일조건변경허락
th
묘두
수영
선호
크루
마지막으로
AC
카르
해적
쓰레
단순한
확률로
말할
km
출현
##렸을
3차
불꽃
1980년
여동생
기본적인
남북
지금의
##인공
아무런
편의
전철
긍정
##오지
##ran
정말로
부인
선출
##권에서
##아를
레전드
죄송
박사
반응을
왔다
UEFA
적절한
순식간에
드랍
##모가
대포
구체
그것도
테크
첫번째
합격
혼란
견제
남겨
##개발
쪽으로
186
날개
인용하기
정착
좋을
페이지
어쩔
##널티
진정한
생각하는
62
도달
##줬다
##령을
목록고유
미야
##색을
머리를
##ud
떨어져
##mer
##함에
FA
16강
##형으로
올리기특수
바뀜모든
##데이
없애
##뵤다
눈치
이성
자신에게
조준
떡밥
청소년
이슬람
크로스
업무
복수
구속
95
방면
##격으로
##르를
서포
형태의
상태가
걸려
크고
##평을
익숙
장식
명확
##하지는
오로
가로
NPC
제로
1로
통해서
진실
##메이
##사에서
크레
와서
생각합니다
##하기에
##보댜
He
작사
##종이
##까지도
98
##학적
공군
들은
수집
중에서도
##데스
ㅎㅐ당
##mp
들어간
사람들을
영상을
##ㅋㅓ
##one
##iz
아닐
##ft
##실점
##ㅅㅓ는
계획을
기절
알파
##름을
88
사이의
뿐이다
CP
제2차
베스트
3D
그런지
글로벌
##간을
식민
이중
울트라
##역에서
성능을
##색이
얼굴을
관할
어쨌
전쟁을
콘서
성립
모바일
골든
곳에서
준우
AK
##되었지만
사실은
계정은
상품
필리
이의
MC
##uc
그렇다고
##미디
매유
폴란드
##니를
방법이
##잖아
##ㅎㅏㅇㅕ
다섯
이른
올린
엄마
ㅁㅣ국
요새
했다고
제6
강남
##이ㄴㅏ
##함과
##권은
쓴다
지식
##베이
어떠
##가에
것이라는
계속해서
2005
##장한
있음을
감독이
형식
4강
전튜
계급
사운드
케이스
자원
##기업
##가고
사실이
죽는
정확히
ㅁㅐ우
스폰
도라
격파
##고로
##므료
##버트
결합
전원
##거운
드물
##사항
노래를
top1
검찰
##단체
인수
##으려
잘못된
그러한
개시
##율을
##지인
187
회장
막을
##함으로써
##end
교회
##킨다
그에게
걸린
##kg
만든다
패시브
둘이
##다이
##ame
다ㅅㅣ
명이
ㄱㅣ록
먹을
##햐어
##해주는
등에서
##ord
##담을
넣어
라이벌
달린
고생
##가요
극단
결과를
##이라서
활성
대하여
때문인지
필요하다
커뮤니티
보낸
정치적
처치
이날
이야기가
##할수
조심
그다지
##양이
##문학
##라노
나뉘
##하시기
##용은
2세
닥터
트위터
전투를
전화
##티드
투자
몰래
문서로도
위치를
SN
##호로
대략
제이
##경이
판타지
에드
##라운
똑같은
합성
싶어
Pro
CC
이끄
##전과
거래
77
장군
##재를
##댜면
##링을
의존
##ID
했을
85
성능이
##랫동안
다수
반발
##안이
당신
전면
1986년
말은
##당에
900
##뿐만
재판
여려
##운다
아시안
예외
녹음
가리
##보스
##루는
페이스
관객
분위기
##ㄷㅏ면
유용
ㅎㅓ
대항
지속적으로
생각이
하나를
한계
##그래
##ㅇㅔㅅㅓ는
수송
곡을
반란
##ㄴㅑ
76
##았지만
##대장
쓰인다
##하게도
##EN
의미가
쓰러뜨
추적
은행
노르
MP
넘어가
패러디
향상
이재
##협회
작품의
길이
##인지라
접속
이집
가득
조절
ㅇㅣ용
떨어지는
조금씩
무서
저장
농구
블록
대규모
윌리엄
##등급
ㄷㅏ시
근육
예측
##ust
갈등
대폭
##ass
심한
침공
Lv
소닉
활발
2004
바뀜파일
해당하는
대원
##스트라
보장
점차
상표입니다
권총
##연의
때려
무게
사ㅇㅣ
사람들의
생활을
##던가
메달
##평가
600
##민이
무료
##사인
목격
들이
흥행
파이터
##레일
미디어
##리면서
0으로
공공
알렉산
치고
트랜
혁명
보물
##론의
교장
##실에
##소에
유행
##이트를
잡는
##력도
##르지
함정
##실한
##환으로
뽑아
##하를
이후의
창조
충전
죽여
TH
없으면
아이템을
세계의
그것은
##ock
##ue
##머리
최후의
덧붙
##주면
노예
##ary
모으
스타크래프트
##라교
사진을
##인들의
개정
커버
괴롭
아야
##하이
적극적으로
마츠
보이고
ㅇㅣ상
이득
하기도
요즘
##인들은
곳으로
97
##자료
##해져
높이
눈이
##란색
벗어나
위기에
흘러
구출
달아
2부
##조는
2기
##았는데
주인공이
##내며
채로
아무래도
장수
##보드
나은
버티
주지
가문
않았던
용의
스트라이
##연을
갤럭시
선물
##자키
초등학교
미술
참석
##하에
참고하십시오
원인
트로
내는
국갸
그로
어째
72
##지마
##들에게는
내의
절망
잠수
개혁
편곡
##대에서
##차피
##일드
##둥이
##린이
##터리
##법이
##내기
판정
마주
##음악
##99
데리고
math
있는지
영업
드디어
##체에
정복
대상으로
독특
국ㄱㅏ
##먹을
오늘날
레오
##ㄹㅏ도
##ㄹㅣ즈
수사
불린다
나루
##셔서
다운로드인쇄용
협박
MA
몸에
고구
전함
##연이
##뉴스
강철
예능
차별
2의
이용하여
##가락
많았다
있었댜
노트
전시
##하긴
다행히
슈정
##파의
성적을
##무기
이아
리버
##홈런
##쥬의
파이널
물질
##보단
연상
##것은
적합
발행
영문
있긴
대단히
딜러
포르투
본작
##해가
##감독
이들이
쪽이
우리는
떠올
수요
재단
로스
공화
##익을
사장
##경제
##통신
네덜란드
##양의
햐나
##안에
의료
늘어나
##석은
있어야
##방향
타워
능녁
##타이
정령
기반으로
##man
주어
##시절
##미니
##13
다리
ㅎㅏ나
방출
남부
김종
땨라
생겼다
되ㅇㅓ
ㄸㅏ라
##츠의
사정
##일로
##io
것인지
##ㄱㅣ가
전후
##학의
헤드
##건이
외계
호텔
그ㄹㅐ
##이더
되었으며
1985년
##속성
둘째
댜만
수준으로
구역
통상
않아서
한동안
##교회
##세에
##하세요
관심이
2개의
군주
대문사용자
부른
ㄹㅏ고
연관
의뢰
AI
위ㅋㅣ백과
과정을
위험한
ㄷㅏ만
쳐음
가이
정뵤
##츠키
다중
##코는
아닙니다
##버렸
몸이
제7
중의
사람도
##시간이
##현의
##부장
소화
##단과
저작자표시
at
##40
##카를
주말
처음부터
막기
요괴
스티
2002
##전대
시점에서
##페이
아케
전력
있었ㄷㅏ
현지
변경되었다
매니
랴는
모리
오랫동안
실제로는
일상
고용
##IT
ㅊㅓ음
제법
PD
You
혹시
오전
의무
경상남도
ㅆㅏ
메시
일시
##ㅅㅏ를
ㄹㅏ는
##산의
제도
전공
헤이
주전
##병이
찾는
시키
정지
하계
추정된다
이정
##보자
##라기
##린의
##실이
2층
공격력이
##구와
두려
붙은
시기에
감옥
##산이
플랫
1대
최강의
뛰어나
삼국지
애플
고양이
1984년
태평
##되었을
마녀
DLC
##ys
훌륭한
경상북도
우리가
Te
##해지는
우수
과연
심판
3위
마법사
##한국
ㅈㅏ주
##티아
등장했다
##니와
마크
통ㅎㅐ
##통을
접촉
1세
예비
계약을
대체로
철저
선생님
패치로
##오리
처럼
모른다
있었으며
##사령
##이었는데
##배우
뵤면
심리
##학고
죽음을
미스
##공사
##ood
테이
##ㅇㅣ며
잉글랜드
##있고
하나인
무언
##뷰텨
##미와
ㄸㅐ문ㅇㅔ
아직도
소수
빠진
800
전투에서
통제
자기가
##쟁이
했으며
##들과는
##이너
불교
실력을
##신문
##로봇
공개된
동음
쓰기
된다는
##법은
제임스
파일럿
##버리고
확인할
조용
##환을
AT
3대
##러는
한데
신화
##ies
맞게
일찍
말로
##기에서
##화되어
펼쳐
##리에서
언제나
SC
갖춘
승부
방법은
가드
싸우는
자리에
추가되었다
여러가지
부상을
국왕
4번
어드
중에는
문서로도움말기부
정보위키데이터
블로그
그랬
남쪽
문서가리키는
신고
ㅇㅏ닌
##백을
하나가
이지
선수가
극복
카운터
무렵
뜻을
##자치
경고
않았지만
##ove
##편의
되여
성격이
대만
동부
되지만
이내
##현이
북쪽
##갸는
홀로
아무도
와이
##ㄱㅏ는
감시
적당
그녀가
랭크
클래스
이며
지역을
캐릭ㅌㅓ
##선에서
일으키
야닌
추격
정류
원본
##파를
##안의
국회
여왕
##술사
문재
개입
비하면
뜻은
##전투
##OC
##인에게
on
들어서
기능이
압도적인
##라이언
밖으로
서비
아티
##배를
초창
전형적인
##성ㅇㅣ
##다ㄱㅏ
30분
##병원
인형
##크라
##더스
##소한
다니는
모습은
일도
오빠
요코
효과는
##주에
같ㅇㅣ
쏟아
동경
##ㅇㅔ서도
플레이어가
Ex
히데
##ide
문자
안에서
일명
은하
##다갸
화학
##석의
##시험
적응
공격에
##쟈가
이쪽은
간혹
플로
즉위
그건
##ice
몽골
그럼에도
##받았다
3인
잃은
관측
유희왕
##거리가
##로와
판결
관중
진지
사용되는
못하게
##인인
자신과
역을
모른
프라
##민족
##종을
아쉽
##IS
##14
##80
BGM
확률이
현역
플레
##환이
참교
가면라이더
##론은
것이고
들을
국제공항
확대
승강장
1983년
##ign
적어도
160
없는데
##망을
크기
알림
보안
##지는데
##소는
##비트
ㅇㅣ런
비중이
you
이끄는
돌ㅇㅏ
빠르
자치
##ich
##제국
##aw
유령
리듬
##에ㅅㅓ도
어떠한
##당하고
밝히
##어와
마이클
사용하면
이후로는
보이며
##ㅈㅏ가
유대
WW
채택
수치
이명
하교
주기
대상이
이주
##비에
##유키
셔울
능력은
ㅅㅓ울
##량으로
돌아온
##서로
##었기
2배
##움이
##상과
96
반격
관계가
리메
##지않
MVP
##마는
후속작
##인민공화국
팬들은
안티
##NA
훗날
환승
##기간
##당했다
##사회
##ㄹㅣ가
##ction
내놓
##에셔도
있여
3학년
##도르
융합
어깨
자이언
신앙
##시야
본인도
SM
##pl
정면
##ite
자체를
일부러
##들이다
##화한
##신으로
##nt
##파이어
각본
구해
형사
새벽
캐릭터의
목소리
##물에
통산
김태
팬들의
커맨
경기는
일방
합병
1982년
어그
나오는데
낮아
자신들의
비트
##선과
녹색
##양을
없으니
경기가
##되지만
포스트
카를
매직
삽입
지원을
##ㄹㅖ
금속
##대상
만났
똑같
착각
소재로
파라
AR
##거리는
토모
샤이
매년
동네
##중앙
댄스
##으론
기억을
저녁
폭주
무덤
중계
##크와
약간의
175
도중에
##법에
필오
개명
개막
##화와
들어가는
발생한
최우
2003
le
특ㅎㅣ
##과정
##박스
네트워
##슈타
##번에
가상
구멍
순수
##영의
난이도가
하다가
어차피
다룬
신기
OST
특이한
##들인
미츠
동쪽
사전
이들을
막장
강원도
2학년
##의가
##ES
쿠로
##경의
느낌이
##심한
회수
단편
곳은
장악
##트릭
플레이를
Su
내구
##묘한
세상을
죽어
금융
발매된
지니고
총을
Sc
해상
바깥
외에는
##터테인
무적
##친구
브리
##영이
##군으로
이끌고
대화를
몰려
편지
살려
찾기
궁금한
##유로
그러냐
트윈
##아는
들지
군단
##과도
정부의
##EM
성남
##ire
브루
속하는
##았댜
##다의
남긴
데미지가
##BA
##조리
옷을
카나
방법으로
드려
귀여
##으러
##ish
전성
##금이
이영
이후에도
끌고
김대
던져
이즈
시에
한명
스피드
##사관
##나고
##타입
관찰
##ont
여객
##22
드리
##ick
##나라의
메카
태어난
86
##심으로
##사이트
##제한
적대
노부
부문
##했다가
군대
가까이
시즈
이루어진
습득
##17
캐릭터를
##션을
근본
##러진
Me
##국민
구글
Cl
준우승
왕의
##림을
경비
GT
##마이
집행
민주당
##만큼은
다가
##곡을
좌우
역ㅅㅣ
Wh
##자고
##졌으며
탈퇴
포탑
보일
##ah
여느
오해
없던
출입
5개
인구는
1981년
##였다고
경향이
ㅁㅓ
##식에
##등의
DJ
##모델
##sh
챔피언스
진보
이치
똑같이
별명
##우리
##주지
것만
오사카
##토는
이시
##야구
1기
대개
##ash
##oh
김민
그려나
##겠지
스카이
기습
##경에
줄어
JR
맞은
가사
구성되어
##ther
팬덤
포인
그ㄹㅓ나
없었고
대부분이
##소리
유치
2대
아리
체력을
해병
스미
보여주었다
올리는
##공원
동음이의
##당해
##퍼스
##oon
장교
##했는지
##았ㄷㅏ
어른
밝혔
제정
작품을
63
말아
한마
##ace
##실의
그러ㄴㅏ
##카는
##소로
당해
경우에
발언을
##헨티
예고
점수
##레나
마인
정책을
플레ㅇㅣ
일원
최다
김동
##ternal
잡지
스킬이
장관
생각하고
ㄱㅖ속
인간이
마도
##고속도로
캠페
유명하다
많은데
토막
##국은
##샤의
주변에
관계로
대미지
잡을
선전
##디로
모여
##천시
ㄱㅓ의
오직
인민
어쨌든
##재로
##실에서
것ㅇㅣ다
##노의
것이ㄷㅏ
겨의
##았다고
##졌ㄷㅏ
74
##슬러
##노스
73
인류
북부
처벌
않교
##민주당
##트에서
##판에서는
헌터
테스트
있었다고
인증
1학년
리메이크
수십
찬성
용어
이거
빛의
무효
다수의
동계
##기까지
##없다
250
되었는데
정찰
##pe
##브리
##씨가
죽인
아무것도
##당하는
전진
마침내
##iki
다루는
팬들이
멕시코
환상
만드
##리교
보관
부임
소형
내세
밸런스
세계를
3루
죽음의
##까지만
랭킹
##24
##팀이
최신
근처에
탱커
어린이
##주교
외의
##법원
소총
칭찬
##rom
곧바로
##야를
위치해
##수인
##트맨
신분
##즈와
서부
##해아
##ost
실ㅈㅔ
존재하지
꿈을
한국인
##끄러
찾을
체결
위ㅊㅣ
베네
클래식
서양
파이어
물을
##지교
깨닫
##OT
어둠의
네가
더빙
ㅂㅏ로
코믹스
##시키기
반박
84
ㅈㅏ신
##이게
블러
동성
1945년
폭격
플랫폼
성공했다
비슷하게
사건의
##지간
창원
##종은
##습ㄴㅣㄷㅏ
2번째
##te
수련
##물관
종목
##OM
스탸
공식적으로
원주
명을
설정이
배우는
영역
간주
##투를
달고
67
강의
스ㅌㅏ
##물은
##되었다고
나타난
포르투갈
##하고자
##명에
있기에
방사
않는다는
##노우
거야
##스트의
KBO
묘습을
들면
힘으로
천안
##약한
1층
Or
입장을
##졌댜
선고
주었다
##필드
##ㅇㅐ
정신을
##효과
Mar
로그인
살펴
잃고
햐고
있었기
##법인
마지막에
##팀의
사토
##된다는
War
##are
완벽한
육성
트럼
자는
때가
전멸
정도가
THE
핸드
##실로
전주
모스블
##호와
##색의
마리아
##바라
쉽다
명백
스승
##포로
깔끔
넣고
##되교
한다면
마리오
1970년
지어
부품
화력
명령을
##RA
Ph
지내
##CG
별다른
지능
뮤지컬
2001
가고
멈추
##사고
##렸던
재정
병원
물고
##OP
혼자서
챌린
##ㄹㅣ스
68
##학원
##싱턴
동굴
대처
자매
##는가
때에
그들을
세ㄱㅖ
은근히
##계열
의문
##습니까
##랑이
##하였는데
일뷰
수도권
##리우
##먹고
바보
타케
추가바람
개방
열쇠
4회
시대의
##리얼
##입ㄴㅣ다
강요
않아도
세르
채워
인하여
태그
드는
드림
##국에
##벌레
##ㅈㅣ로
역사상
감독은
##함으로
슈팅
##든가
만드러
##정책
책을
##터는
갈수록
##리케
ㄱㅣ본
##입니ㄷㅏ
결코
넣는
##이긴
##코와
##90
##당한다
출생분류
그라
집어
식의
다음날
언급한
병력
일본에서
양성
분위기를
이외의
경력
##ㄱㅣ로
꺼내
커플
##약이
##생의
들어오
비상
끝나고
##막을
카드가
콜라
##생을
읽어
그들이
않도록
연락
전까지
185
##당할
##타와
대뷰
##집을
한참
야스
언니
포항
##ical
##란이
5회
##세스
##란의
승객
미군
##짜리
##색으로
##건의
몰락
소식을
##피를
풀어
비공
개설
어릴
##ㅋㅣ는
1979년
##브를
부분에
##세로
하얀
전에는
그랜드
찾ㅇㅏ
##하면셔
반응이
##ㅆㅣ
is
external
##마루
한반
##작을
법정
만들ㅇㅓ
프리큐
하니
##치며
기병
##하면ㅅㅓ
체계
KIA
##하는게
캐스팅
##하였습니다
말이다
시켜
나를
##로나
##다시
9회
##ㅋㅕ
##인지는
클레
##어리
##직한
New
개업
##했교
증언
보여주고
끌려
지나치게
필살기
##국제
루시
모두가
같지만
늑대
4월에
급격
수업
##유럽
각각의
kt
##렬한
##됴록
장면을
아름다운
정수
##인ㅈㅣ
서서
육상
기울
취향
##님을
Gr
세포
##VD
##프리카
바른
110
##크스
현장
김현
##어스
임무를
피를
##코를
귀찮
알리
패션
2000년대
##롭고
아일랜드
HD
독특한
##프와
101
지금도
##았으나
에피소
묘습
했다는
##드레
뵤여
##가면
충격을
##스트가
무릎
가볍
이은
상상
통치
##ㅇㅣ스
있는ㄷㅔ
##이도
과거의
화성
##슬링
82
떨ㅇㅓ
저그
입장에서는
돌야
해안
사랑을
##서에
##명과
방어력
멀쩡
의미를
파리
##졌지만
##단지
##LE
2주
한국에서
시스템을
부분의
사후
믿고
스튜디오
ㄷㅐ부분
색깔
건국
시즌을
스키
능력치
##브라
에는
전방
명칭은
##미터
안드로이드
신라
##음에
다를
##임은
식물
##ㅈㅣ막
위장
##구치
잡기
죽고
스틸
##받을
전쟁이
시달
##욕을
##랴교
##리ㅇㅏ
적어
ㅌㅓ
양쪽
제갈
지형
주장을
여러모로
##정과
정부는
##했었다
프로젝
네이
##ix
ㅅㅣ리즈
저명
나중
같아
Wor
##인들
간신
병력을
아머
스톤
장르
터키
Pl
2인
자가
대ㅎㅐ
천재
##츠를
축규
##라엘
올랐
##소에서
특집
친일
이글
##법의
주제
##코드
##비드
아랍
의지
출마
노벨
요약
##러의
프란
어떻게든
사이가
##햐면서
죽일
일환으로
제출
##다니는
K리그
평가가
##령이
##공학
갈라
중에서는
간부
이길
후손
##들과의
측정
갔다
불을
지역에서
##인ㄷㅔ
##신교
수출
신이
메뉴
거듭
##그리
연사
##ung
덴마
틀을
평이
ㅈㅣ금
KO
긴급
강제로
이상을
##투스
결과는
쫓아
하야
##것으로
##쟈의
게이지
고교
한쪽
성능은
니시
##토와
구원
캡틴
이듬
##ond
무관
갈아
1부
##왔던
##개가
##이었댜
##II
부적
높고
분당
추구
전체를
마왕
파트너
##예술
세운
여신
것이며
이민
가스
스마트폰
##az
느낀
##iss
##햐댜
대충
일일
##슈를
기술이
78
왕자
위주로
곳곳
이제는
##쥬는
제어
가을
##하기는
##절한
우연히
##ile
무엇보다
아바
##계에서
89
##타나
ㄱㅣ술
나눠
2로
CJ
방에
편집에
##비와
의미로
SKT
백작
be
##후의
중복
##리포
분명히
사회적
비용
##되게
메르
실력이
디지몬
##ens
##줘야
##워치
##였기
##노가
그렇지만
##비로
다카
##햐지만
##여를
##동은
결과적으로
##즈마
상급
세계관
폐쇄
화를
용인
주식
빛을
간접
##ㅎㅏ면서
##졌을
##ime
짓을
##하면서도
3연
##쿠라
##ox
##진으로
ㅇㅏㄴㅣ
##기됴
무방
가속
화물
동남
##미네
##재가
이우
##사무
알바
##졌는데
단단
##조사
시작으로
##가서
치는
수수
고백
찾야
SD
일치
8회
##모의
##ㄱㅐ의
##계획
##ㅇㅣ라
자극
차원
나아
##석에
코치
팬들
공격하는
##다란
##있어
##디가
주먹
헤어
##파이
언덕
세상
싸울
음악을
##진과
라틴
김재
무작
##증이
가문의
맞으면
스프링
곳을
이상으로
인ㅎㅐ
##공업
비판을
평양
도발
뜬금
##동과
일종
침입
하거나
EC
문재인
느린
불렀
유저들이
보게
##구리
실망
윈도우
61
여ㄹㅓ
##이든
##전문
##체육
어두
먀지막
개교
앞두고
유형
##ㅈㅏ의
디아
##우주
보완
국정
##탄의
AS
##택을
##MA
나나
원자
1973년
87
개오
전역
우ㄹㅣ
GS
##되던
자동으로
쓰레기
홈런을
고위
선수로
단점이
ㅎㅔ
##씨는
##우와
생략
이유를
워싱턴
아가
ㄱㅐ요
맞서
조약
드럼
##더라
##orn
목표로
어쩌
사용하여
##그라
익스
버리고
생일
잇는
기록한
포스
##씨의
메타
이외에도
ㅋㅔ
크리티
##pt
조건을
콘텐츠
캐릭터로
보지
##ㄹㅣ아
특성을
오래된
##졌던
이혼
##으려고
내지
##자마자
집을
##의의
##검을
##관광
포트
##ㅎㅏㄷㅏ
배포
좋고
오류
주간
##대사
스턴
##행위
문명
확실한
3개의
##과에
싸움을
아르헨티
##탄이
주인공의
##조로
보이지만
침략
##샤가
##ㅇㅣ라는
##오와
##모드
My
진압
강하게
쓰인
##ib
너무나
시절의
둘러보기
방지
##러를
##렇게
조별
##보이
소위
있었을
입을
##계로
##켰다
물려
영광
싶다
700
원소
위치에
있교
영토
넥센
오스트리아
##네스
##ug
올랐다
자신도
천황
휘두
##쳐서
##ence
의미한다
제작한
##았으며
퀄리티
##이라교
클라
94
재현
공성
되었다고
포위
인디
1만
##사랑
찍은
##각이
교전
##하려면
##키와
거기다
##들만
잡은
항복
아빠
창설
줄여
유사한
##보로
위대한
##블로
코어
##번의
그렇다
##ㅇㅣ지
##더욱
ㅈㅔ작
##ㅇㅣ션
이어지는
입수
마법을
##ㅇㅔ선
머물
SR
183
퀘스트를
위기
주관
##보가
##전자
Pr
사용된다
하더라도
##산시
##ee
WWE
사람들에게
ㅇㅕ러
청와
##족이
느낄
나폴
##율은
잡혀
고문
자격
##란다
시그
##셔널
프로필
##월드
리얼
좋게
##ㅇㅣ라고
감정을
스태
##에다
92
기분
##축구
##버그
욕을
##uby
써서
구성된
중독
유효
##IG
하나이다
##레이터
서쪽
정비
되어서
가라
##역은
##되었다는
ㅋㅐ릭터
보너스
이여
##사단
챔피언십
기재
실종
보며
행위를
##테르
권한이
니콜
주둔
an
마음이
##등장
##AD
##로서는
후계
구사
하트
##훈련
고수
개별
클릭
왕이
다들
Fl
4대
Min
저주
난다
제8
갤러리
경남
레알
##있게
일으킨
되돌려
책임을
1군
동양
스트리
##슈가
고구려
##히로
새료
말하면
##ㅎㅏㄱㅣ
작업을
by
전신
##봐야
마구
##전설
130
##두는
귀환
포켓몬스터
길드
그레
모모
##60
사우
키리
숫자
호주
만날
만나게
상술
##린을
지시
아쉬운
##민주주의
인물로
이종
과거에
##기능
시위
사용하지
등재
##자들에게
불가능한
달ㄹㅣ
부수
별도의
작성한
아들이
동화
무인
ㅇㅣ를
있음
ㄸㅓ
심장
변경을
유니폼
타이거
##쟈를
생각보다
##맨의
한타
철학
시드
ㅇㅓ느
1명
밝혀졌다
전문가
대미지를
태어났다
언젠
##ook
버려
##때는
##점의
미카
없다면
대성
##질의
작품이
##닉스
엘프
개량
많아서
함선
140
필리핀
공룡
##드라마
##신과
헝가
##버려
휴대
잠재
절대로
자본
##클럽
모래
##원들이
소리가
1편
하필
내리
국가의
보라
미스터
모르겠
단위
##워즈
##OW
학생들이
연맹
##ㅇㅣㄴㅏ
활성화
나름대로
눌러
된다고
184
실버
##률을
처형
거울
##ㄲㅣ
##라이트
소드
정체를
Ad
하시
##조직
83
##pp
골을
##망이
이듬해
확인해
동인
취득
##디를
전설의
DVD
과도
거리가
히로인
문장
##치면
피격
프로듀서
캐논
날짜
인물이
이식
합체
##고에
나와서
내장
자식
AM
체크
##일리
##ale
##제와
업썼
이상이
있다가
기숙
사거리
##ann
##아와
계통
##하라고
것인데
복구
토막글
것일
소방
법칙
##UN
##orm
대리
음성
공격할
##부인
1972년
태풍
어디까지
##급으로
왕국의
##의회
##였을
문화재
ruby
까다
받으며
아파트
무척
1978년
계기로
루이
메리
출연한
올릴
화가
부를
손으로
세븐
ㅇㅏ무
##토론
총기
벌어진
게임에
완공
ㄱㅣ준
눈물을
유감
ㄷㅐ표
플레이오프
##질로
##리드
올랴
##닌다
작중에서
이번에는
강등
##몬드
##ㅈㅏ를
##조선
정통
##우기
변환
##영을
올ㄹㅏ
원인이
##린은
분열
장치
##아파트
점이다
##가며
생애
##쟈는
전북
6회
들어온
할머니
교사
카라
##야만
ㅅㅏ건
1974년
##바의
##판에서
라교
시작된
의ㅎㅐ
새롭게
악의
건조
he
콘서트
경주
차라리
##주일
##났고
별개로
##노를
##족을
디버
##으로서의
집합
지역은
헤비
넣은
##들에ㄱㅔ
##하겠
연대
연금
크리티컬
충청남도
이자
게이트
공장
남기
공사
들어갈
빌런
##용의
지키는
Br
##ㅇㅣ드
소장
##들여
라이더
##이교
인종
닌자
중장
상황이다
올라온
##하가
해피
UN
움직이는
랴고
왜곡
받아들이
남아있
의ㅁㅣ
##ㅈㅏ는
##님은
##겨리
##차는
수를
기록이
##국으로
##25
튀어나
적혀
사마
##느라
##돌이
게임은
##희의
비싼
1960년
단축
의해서
둘은
아니랴
의하여
않는댜
삼각
##운의
흡혈
##OD
##인간
결론
부근
신경쓰
구별
곤란
##온의
비례
걸고
##팅을
##링이
##경은
ch
무기로
##감한
with
버프를
##조합
##주었다
않았을
##alk
나쁘지
현재까지
##분은
포함되어
에도
##기갸
폭력
태어나
##성능
에셔
자전
부작용
얻게
휘말
4위
천연
적당히
하락
69
닌텐
양의
보충
발굴
기용
이스라엘
종류의
##양함
선두
연도
김경
빌드
##여자
신입
##반의
##우지
사라진
##갔고
##본부
##영은
##면의
속의
웨스트
난입
##양한
있습니댜
##ere
##리라
트럭
##마와
앉아
이수
##업이
다이아
뮤직비
요청을
7회
##로소
발렌
집착
스플
느낌을
영화를
미안
이루어져
##인한
마이너
##에겐
해리
##다보니
생기는
요정
죄다
토벌
국도
유닛을
ㅅㅣ간
존재를
미국에서
##터테인먼트
멋진
약점
##번호
스즈
돈이
돌입
##였다는
주변의
집으로
노리
희귀
##발의
있겠
##주세요
완결
되기도
갑작
무역
전체적인
##박을
성공한
집에서
##면이
점수를
알ㄹㅕ
##차례
전반적으로
내보
찍어
서식
거라고
모르고
##바를
남녀
기회
레어
##냐며
##반에
최소한
멜로
세인트
##졌다고
밝힌
박스
순서
##파가
변경할
제작된
완전한
금방
아크
걸맞
##란드의
코난
세계에서
같은데
유통
결승전
프라이
요한
##VA
흐름
##능한
##00년
시내버스
##생이
##이었으며
태평양
##무장
검을
봐야
실수
유나이
니코
쟈주
##츠가
숨겨진
##마법
##조에
보냈
이용하는
##TC
단행
기지
출범
있어도
##국가
##베리
분위기가
##ree
##네의
호위
ㅇㅣ는
사양
Pre
##다를
##ㅈㅣ가
자쥬
않는ㄷㅏ
김일
성을
##지구
그너
##주와
ㄹㅓ
물건을
1분
귀국
얻고
그ㄴㅕ
안양
위키백과는
가야
밝혀진
##US
사막
복잡한
수립
최근에는
3번째
데에
아니라고
##보병
##해지
뜻하는
자리잡
Ma
브로
KBS2
쿨타임
빅토
받ㅇㅏ
논쟁
이전에는
##판으로
2편
20년
아즈
양식을
데드
##마저도
여전
와중
##데다
당사
이전과
죄송합니다
상륙
ㅂㅣ슷
작곡가
수술
간신히
카메라
AKB
##침을
##ivers
교과
좁은
보다는
유력
못했고
##하셨
덕분
불가능하다
몰랐
레벨이
부각
공기
아테
##리즘
ㄷㅐ신
당시에
격추
샤건
EP
##사우
1975년
쉽지
올스타
##도에서
키워
오스트레일
말하고
##릭스
##old
##누리
받야
네임
사망한
##례를
형식으로
정식으로
떠러
그랑
부딪
인원
##운을
들려
오지
보어
제20
관련이
역사를
당일
##민국의
새끼
올렸다
1971년
블라
볼넷
대우
공정
##요시
부상으로
##슨의
다스
##ㄹㅏ면
작품은
블레이
79
사용이
전라남도
특별히
발생하는
비정
CPU
초반에는
정기
표함
마술
클랜
배출
도주
한정으로
##키아
사용자는
##하시는
입니다
용도로
패턴이
졸업식
근대
7년
신도
##해지고
##주며
이용할
할아버
대사를
오카
Chong
##준의
##행이
마그
주장하는
##범위
##르며
신호
터뜨
그림자
중세
버린
게임에서
평을
##tle
##았다는
우수한
당하는
카타
보유하고
라운드
강하다
아버지가
##공화
##방에서
1의
록맨
##보호
역ㅅㅏ
JT
눈물
나요
##갸지
추억
영화의
와일드
Red
신비
학습
##왕을
다음에
몬스터를
부탁드립니다
##됴를
비슷하다
##로워
##슈의
##메가
공개되었다
##리지만
차트
1976년
목을
사유
##플렉
고스트
카미
슬롯
NH
엄격
당연한
상의
돌아오
시간에
성격을
##듯한
듣는
작가의
유승
대표팀
ㄴㅏ오
유발
기상
##연맹
스텔
Fate
되었을
##웠던
죽이고
##먹은
##Dae
##나서
동기
정부가
전부터
드레
총알
모조리
##200
##소설
##포가
##21
##진에
공연을
후보로
군대를
##내지
경기장
##oth
아닌가
종로
##르와
##속에
나가는
적용했
페널티
##amp
출간
동영상
자랑한다
##파로
##디의
other
##하겠습니다
##받지
##ET
##ult
만남
정차
본다
소송
알겠지만
##칭은
놀라
##창을
ChongDae
싸워
탱크
스테이
125
바꾼
노븐
브레
##주자
##상황
충분한
스팀
##ㄱㅣ의
탐험
##커스
공지
##교는
공용
##기기
##펙트
예로
##티스
상당ㅎㅣ
##재판
##공이
모스크
거리를
아틀
##았습니다
가깝다
뒤에서
En
코코
아쿠
##행정
##으로만
형태를
떨여
##ㅎㅏㅈㅣ
선수권
고작
곡은
##ㄷㅐ의
##된다고
##중이다
백성
이ㅁㅣ
##번을
##차량
심하게
도구
##시에는
1998
##버릴
##로만
##ㅎㅏ였ㄷㅏ
더더욱
ㅇㅣ미
불펜
타락
##23
##햐였댜
임대
직전에
그럭
아니라는
매력
##받는다
##이기에
내용의
이겨
ㅈㅣ역
수백
끊임
베를
2연
부서
전남
##중의
선수들이
##되어서
만들여
저렴
##병의
##ational
지불
##커를
3세
##능력을
##포의
악역
화려한
##전기
아니었다
국민의
##하시면
업로드
탄약
스페이스
대통령이
넣을
1950년
##류는
어려워
읽는
##통이
그림을
##속으로
##당과
테일
아메리카
##청을
##슨은
농업
캐리
관ㄱㅖ
좋야
대대
##me
카트
트롤
끝날
판정이
샌드
일람
문서로
마드리
설정을
권장
##와도
##커의
수류
##안은
복합
도구를
성공한다
토끼
##하라는
자ㅊㅔ
취급을
2군
가능하며
힙합
한번에
허나
##환의
김상
쿠키
맡아
지리
##olog
##계는
2명
문제점
좋ㅇㅏ
도서관
한일
ㅈㅔ외
연속으로
사용자들이
있었다는
별의
예정이다
드랴
##해준다
초중
ㅎㅏㅈㅣ만
창단
곡이
김진
##민은
사쿠라
전ㅊㅔ
##희가
##천군
사람들도
잔뜩
연규
초록
##연한
베이징
끔찍
가짜
##위해
##기록
객관
마케
공격은
드ㄹㅏ
##고한
으료
FC의
빨라
##유닛
##우며
##현은
아니냐는
땅을
워크래프트
북한의
항의
올렸
##위권
디젤
LC
##ase
##해질
놓은
숙련
삶을
##ms
대선
##인들을
가시
작년
##일본
LI
얼굴이
후기
인간을
언더
뚀는
1990년대
만일
자체의
업그레이
##ake
마라
예언
등장하지
아이스
아미
##겨냐
초등
지칭
##인이다
생각할
##ance
네트워크
지휘관
1977년
안된다
속도를
시대에
SF
결과가
일로
##거를
장비를
장전
해주는
말하며
떠난
패스
역사에
##설이
미치
##산에
DC
나선
코미디
챙겨
호흡
우지
##야는
##하마
동해
이집트
지은
ㄴㅣ
않았다고
미네
1999
6년
진주
늦게
##레인저
##들목
불만을
##되어야
여론
1969년
안나
어지간
##오로
##누스
##되었습니다
##활동
##ㅎㅐ야
라ㅇㅣ
내고
대부분은
##시아의
아나운
누적
가격이
현상이
##발이
이미지를
##벤트를
##되거나
##팩트
불편을
라이온
개발한
간단히
유의
##료가
업씨
크리스탈
##체와
비싸
편집은
것됴
선제
##현을
그대료
면이
얻기
개인의
마블
또다시
크림
모양의
1968년
Co
지뢰
그러자
##속의
덤으로
없ㅇㅣ
왕조
내각
##함은
당신이
들어간다
갖추고
후반에
일부를
사용해야
##했다면
피할
아버지의
##과대학
ED
이용해서
트라이
평ㄱㅏ
세이브
##가게
프로그램을
먹은
운영하는
10분
##ㄴㅏ는
저런
ㅅㅔ계
사법
영구적으로
속한다
평갸
##군다
ㄴㅓ무
소속의
논리
##향을
둘의
시절에
BR
체인
기관총
누르면
일으켜
범위가
##ㅏㅏㅏㅏㅏㅏㅏㅏㅏㅏㅏㅏㅏㅏㅏㅏ
드러나
##령의
##노동
##하기가
자폭
입증
헤르
야니라
##센트
문단
대지
결말
SNS
진학
아트
분기
1963년
농담
풍부
융통
재개
팀에
죽이는
주ㅅㅔ요
##다리
##발로
밑에
ㄴㅏ온
##법으로
준수한
##oll
부산광역시
상기
공지를
##ㅇㅓ로
##타운
올해의
영상이
인물분류
매달
이웃
청주
link
##사기
##나카
무지
초기에는
##회장
##루와
비주
고객
주인공은
안녕하세요
준공
##ㅅㅏ의
천사
정도다
나면
우리의
상대방
##let
많지
##즈니
허락
불렀다
분할
데몬
##차에
##les
소지
필요는
정황
##믹스
기록되어
기후
##하시고
##로써
응용
영향으로
가지는
##열을
##왔고
##대원
변화를
##이었다고
모를
공격으로
##번이
Kore
평생
음식을
##ㅎㅏㅁㅕ
##체인
발라
장점이
시의
그ㄷㅐ로
##마에
적지
팬텀
점도
##는게
약탈
쌍둥이
경북
##햐머
##추어
옹호
##MP
##탐정
소프트웨어
정확히는
유독
시스템이
전작의
물론이고
효과로
##종합
##자ㄱㅏ
보인ㄷㅏ
개칭
프렌
수정했
##ㅇㅓ서
냐온
냄새
밝은
시너
주최
팀원
후퇴
슬로
몰라도
CF
##사이드
##LL
콜로
후배
처음에
통계
##등이
조조
자세히
3명
World
##포르
통칭
사건으로
이고
축제
말자
가끔씩
##츠는
카오스
1루
테란
We
##ert
캐릭터는
보건
##머스
히카
가치가
과목
손가락
대회에서
돌연
노무
의견도
탸이
##지요
권력
트레이드
코르
##스런
참죠
미즈
로얄
나타난다
170
ㅇㅣ동
무기는
정권
##이면서
역샤
한나라
속한
블레이드
위기를
배트맨
열어
아이를
RPG
당했다
챕터
그날
##여객
환영합니댜
도끼
##ㄹㅕ고
##조차도
파생
체험
##ㄹㅣ에
고시
##렉션
##이라며
주신
##관과
골키
##패로
##ㄱㅓㄴㅏ
##디움
한국에
시간은
##면에서
에르
##자들과
대량
이룬
AFC
Part
##자갸
상태를
이ㅇㅑ
잠입
글이
나고
##랴이
스크린
81
설명을
ㅇㅣ야
면에서
원딜
##래의
병기
미드필
개신교
상실
Love
4차
##속이
숨어
멘탈
1억
##저스
방ㅇㅓ
얻었다
노멀
##한을
일에
없으므로
아래의
##랴도
심심
매치
갖는
##포인트
유인
외전
위성
선임
저도
세대
후원
무산
DS
출시된
사회주의
##반을
벨기에
##시스템
프리큐어
치유
내용에
##서도
##었습니다
초보
##시ㅇㅏ
후술
일본에
##지지만
##슨이
쟈신
만주
##급을
반해
봅니다
재위
ㄷㅐ해
되어있
장남
시ㄹㅣ즈
##품이
##심의
저질
맞다
일요일
##ern
##가시
함대
##ㄹㅣ의
##준이
재밌
에그
71
특수한
##페이스
##식과
과겨
침묵
수준이
보너
##아리
해양
수됴
아래에
삭ㅈㅔ
예산
표제
임신
##바닥
1호
##네가
##리는데
어기
전승
본명은
##섰다
많지만
무라
언급된
레지
건지
미라
쥬인공
진심으로
교토
rd
105
카드의
행정구역
슈도
##련의
복원
179
비고
높게
오키
##ps
금메달
전쟁의
철수
##한이
##판과
##편에
먹어
호소
경험이
##투표
않는다고
과ㄱㅓ
죽는다
발매되었다
주제에
하셨
곡의
세력을
도ㅅㅣ
##숙한
나치
기믹
4개의
작전을
ㅅㅏ이
바료
망가
아뮤
뱌로
카와
어마
##하실
타자
##씨를
##버를
상자
보석
한국에서는
유저가
김용
##방으로
로버트
##언이
연구를
결정적인
##속도가
사단
##트랙
직접적인
##민을
3의
후에도
##등한
##바른
발생한다
공립
##PN
존경
인피
##운이
##던지
인권
분이
끝으로
수익
거짓말
##시스트
제9
속으로
김기
##어에
사카
메이플
##경우
중형
토트
구할
페이스북
BL
죽지
종이
##드에서
맛이
커다란
들어갔
공무원
키스
스코틀
마시
카오
떨어뜨
작가가
##ason
이것도
특정한
##저를
##포트
무시하고
##ㅉㅏ
##하쟈
잃어
오디션
##기ㅇㅔ
##료의
##편이
El
전투에
조선의
쪽은
대표적으로
Ed
아니며
##되ㅈㅣ
쟈신이
##기나
당하고
##ear
셈이다
##고리
파르
귀신
첫째
##햐는데
보여주며
1967년
실존
피에
##액을
이니
발을
Car
스위스
##가지로
##캐릭
요청할
##해ㅇㅑ
시작하는
앨리스
##문제
막는
깨달
출신으로
죽기
일부는
##문화재
음원
친한
코우
5초
##빌리티
배정
그외
시노
호환
진격
##료로
동반
##천만
기아
평타
##하ㅈㅏ
떠오
변경될
##33
일행을
도둑
가만
Man
열리는
CG
##소와
##역과
연인
##가스
ㄷㅐ한민국
기존에
##작이
당신은
캠페인
부정적인
모양이다
##라ㅇㅣ
##ier
CS
네오
술을
##살을
##매를
ㄹㅣ그
지팡
칼을
알러
##곡으로
다음으로
##act
뜻이
##밀리
향한
사도
##희는
상관없이
##어지는
이어서
체제
인터뷰에서
##브로
##지기도
1화
업써
결심
버렸다
철거
캘리포
##복지
##ㅎㅐㅅㅓ
방여
##나가는
감독을
잉글랜드의
노바
##됴가
##런트
디스크
발견된
운동을
자리에서
실현
##ㄷㅐ를
신장
요원
##자이다
토너
목소리가
있듯이
##이ㅁㅕ
번의
##ㄱㅣㅇㅔ
위안
밀리
##득점
5번
메일
않는다면
레이스
##MS
인텨
Tr
##에이
이르는
##계약
##고도
##디는
경험치
티켓
SH
##히트
##왕은
LA
사냥꾼
진정
감안하면
그러면
총리
연산
##규를
구조를
독립운동
시청률
임진
확산
JTBC
에너지를
부착
상점
제1차
탄핵
주장이
간호
시작되었다
감지
리가
무의
##cc
최우수
3000
매주
서구
충성
배유
##나기
ㅁㅏ법
게스트
##주의를
기록하며
사람에게
인ㅌㅓ
출력
발표했다
182
되도록
오염
##해준
주장했다
담긴
뒤늦
Sch
공격력을
가능성도
시상
지워
트리플
하였고
된다면
독재
국경
그러던
##성군
##노는
생긴다
개체
일대
질문에
존중
유격
하실
##범죄
스킬은
##하겠다고
추종
##마스터
##oo
끝났
##저히
##동물
있ㅈㅣ만
말레이
배를
##실은
오랜만에
졸업생
바퀴
김해
매번
##졌다는
나아가
사형
세이버
##건설
##히지
##가미
##ex
##저가
합동
IC
시원
속도로
##시하는
##블린
3층
1라운드
의상
취약
대단한
태도를
##포스
플레이어의
버린다
칼날
1승
사건에
벗어
##ky
였다
##댜교
##ai
XX
정ㅊㅣ
##브의
사용된
에릭
노선을
##되었기
##사한
##천의
경우ㄱㅏ
##IR
서명을
SE
장면은
일행이
##커가
해킹
##토스
ㄲㅏ
마비
##미나
식당
막내
##맨이
##스틱
##문으로
##국에서
보여줬
리뷰
##버전
1948년
원ㄹㅐ
부동
이류
##는지는
가볍게
컬러
호남
##카오
##열한
선택할
방치
종결
학술
해산
##군에게
먀법
##레의
1996
엘리트
##온이
완벽하게
##스포츠
1집
프레임
공격한다
##저의
웬만한
통하여
일관
지향
##ㅈㅣ도
공업
어딘
##자도
없으나
권한을
유엔
중순
받기
본격적인
##림이
##강의
집권
최대의
엔젤
아이언
동음이의어
4인
ㅇㅏㅇㅣ
최종보스
3점
낫다
이긴
멤ㅂㅓ
##녁을
히틀
시절에는
##ㅊㅣ는
전투가
땅에
징역
사항은
강점
##ome
걸리는
일여
출연했다
사이드
솔직
FM
정책과
방향을
민첩
대동
회상
##버스터
버튼을
일ㅇㅓ
해명
ㅅㅣ절
##나간
투어
나오기
단종
계정명
1장
이벤트를
##곡이
왠지
ㄴㅏ오는
##ㅅㅏ가
sh
이젠
위력을
설립된
실시간
##공격을
##27
1946년
모니
적다
되었지만
유이
햐냐
1962년
##로에
직접적으로
##병으로
명칭을
나츠
멤벼
##자동차
##슬라
그렇다면
선수를
ㄱㅐ발
구미
##역사
아카데미
일렉
문제에
두려워
전송
재활
시계
왜냐
##러서
##경기에
편이라
##테이
대학원
드래프트
전파
공허
##더의
일본인
브레이크
닮은
##앨범
불이
오타
##이었기
많댜
##림의
##급이
OS
##복이
##ㅇㅣ지만
안동
##AP
ID
##국어
로빈
##속을
##에서됴
전무
나간
목포
함락
나라의
지냈
상대는
낮다
1997
##처리
일어났
타겟
실수로
토론이
##샤는
##구에서
학과
나오면
##교가
수의
유ㅈㅓ
가동
해골
As
블러드
정상적인
##TS
안좋
많ㄷㅏ
진실을
산맥
보내는
뮤직비디오
##반이
화산
##들보다
삼아
##통합
특기
ㅌㅣ
EBS
자연스럽게
검증
내린
상반
반사
한두
##전한
목적을
양념
##메리카
##되므로
창립
충실
1시간
변경되면
인접
방식이
헨리
경우엔
##이팅
건물을
매체
##거리를
공원
##작으로
ㅍㅓ
ㅎㅏㄴㅏ
바이오
일본은
마코
어째서
##rac
보자
충족
은신
호평을
가벼
데다가
편집이
원작의
돌아와
간에
##IP
분포
ㅇㅣ루
노선이
총선
애매한
터미널
길게
주된
출처를
무승
증폭
스쿨
포격
##안전
의학
에리
##더를
159
추방
##owiki
차를
전망
마를
전장
아이콘
대치
생길
1964년
전화를
메모리
##정치
작동하는
##ream
확장팩
아동
ㅇㅓ떤
곳이다
아기
##교사
번호
유출
##저럭
##ㅇㅣ가
AD
요구하는
##우스의
반도
##스티벌
후의
어디까지나
용이
##상한
##바르
가격은
이끌어
##치면서
##감에
이었다
또다른
ㅅㅏ망
침몰
##ors
##ve
번개
소요
불량
세부
입장에서
##ㅅㅣ아
시로
안정적인
변화가
공방
뛰어넘
크ㄱㅔ
너의
메모
##출연
행동이
178
특징이다
섬의
##달라는
##ous
대인
아니라면
두들
치명적인
##코스트
배달
관람
Gre
##칭을
정보가
사령관
##햐던
참여한
그럭저럭
남겼다
아마도
사살
##했듯이
실질적인
##ㅎㅏ던
##길을
여떤
##키지
지목
##ㅇㅣ었다
강릉
##내에
박지
사이버
##무가
담은
##리칸
비해서
##비치
##ower
##eat
##레를
크리스마스
샤망
베어
친구가
스티븐
칼리
##베스
손님
##ade
kowiki
하나도
##프라
나이가
스툐
스트리트
##ㅇㅣ를
흑인
변호사
마키
예전에
패널
음력
나도
##이랴는
그중
성과
시라
성별
별도로
후반부
전날
타는
중화민국
최근에
지진
구간이
시즌에
##ㅎㅏ지만
이순
존재가
##스럽게도
더이상
도서
빌려
거친
조연
명시
뮌헨
깜짝
혼돈
노력의
##력ㅇㅣ
대통령의
신용
이명박
플레이어는
유저들의
바꿀
않으
올드
##변이
뒤에는
##하ㅈㅣ만
NE
가지게
카드는
##없ㅇㅣ
##ows
그러다가
수능
##후에
로맨
##소총
유닛이
IT
하차
랴이
사립
##월한
리스
그렇고
귀여운
중오
떨어진다
신데
지냈다
예수
기둥
월래
어택
##디에
재직
ad
콘스탄
오스만
프로게
한방
##들로부터
1949년
훈련을
피터
기록은
받아들여
##규의
썼다
피아노
중후
방송에서
무서운
침해
커피
알림과
##국과
##벽을
상처를
캬드
개성
모노
좌절
심사
##ail
시작했고
실드
시즌2
받았고
알찬
##ㅈㅣ의
캔슬
마법소녀
축구선수
영화이다
오페
##까진
신선
교도
에픽
아케이드
##ron
1966년
수석
싶다면
유적
싫어하는
5분
협회
채팅
사용자의
##대문
마약
들었다
쉬워
##보의
개선할
최하
우리나라
##중이
혐오
명목
츄갸
구하기
며칠
조롱
6개월
##든다
상영
차기
구름
영원히
무력화
독점
스캔
무ㅅㅣ
1980년대
용사
##터로
amp
##시대의
사퇴
프리미엄
남기고
편에
국무
맡게
##이었ㄷㅏ
##공간
관여
교육을
증갸
정예
혈액
실전
의회
Univers
##수정
멈춰
그러다
##페르
서번
##있는데
##키스탄
##자유
10만
시작하였다
상황은
tv
늘어난
뜻한다
엑스트라
빼고
##막이
##권과
##인생
증ㄱㅏ
발표한
ㅋㅏ드
악당
입는
##주차
수직
윤성
하나씩
편이지만
시리즈에
##장애
사용ㅈㅏ
##영웅
말라
패턴을
위와
유기
ㅇㅣ전
PR
##들ㅇㅔ게
시카
대상을
군의
타격을
찾아가
121
이미지가
ㅁㅏ지막
날카
가요
##선생
계정과
동영
##까운
발ㅁㅐ
복사
AKB48
식민지
##메라
얘기를
수면
##니아의
##편을
심지어는
조선민주주의
##일과
##ool
##미에
other1
rd1
공산주의
모로
명단
효율이
비율
샤랑
회색
득표
준비를
사랑하는
##산으로
액티브
ㄱㅏ지고
갸지고
All
##티를
인데
##시타
팬들에게
문서에서
악몽
하느
따온
이세
수준이다
##미로
##스레
##금은
##어마
발포
전세계
도쿠
##리우스
세계에
뜻으로
유물
대변
되므로
사용쟈
##업씨
##집이
2라운드
마ㅈㅣ막
안의
ㅅㅏ랑
##밀한
하수
맥스
전투기
나오며
드롭
충청북도
중지
시야
##리갸
사용하기
추정되는
BS
관ㄹㅣ
정화
##니버스
##타수
강경
어두운
이득을
죽었다
넘겨주
##바나
인천광역시
가지교
수단
리드
##량과
야생
##차별
병합
정원
요소가
##주인
인격
토요일
6개
##der
야무
##에셔의
기뻐
나타나는
업데이트로
도시철도
ㅂㅐ우
Go
##PM
##이동
##70
표현을
주택
여학생
면역
불의
##ica
##터미널
##대학원
당초
유성
루이스
수동
프ㄹㅣ
많기
쟈기
ㅍㅖ
##ork
전당
터치
궤도
##ank
1965년
풀려
낫게
시체
##전선
말하자면
##경기에서
답이
머리가
연고
부르고
여기는
기점으로
것ㅇㅔ
3부
화력을
세력이
가ㅈㅣ고
기탸
이탈리아의
에반
고기
토론할
리치
##태를
##기념
아티스트
나들목
스킬로
모토
Wind
##있으며
##ics
되살
거북
승점
중첩
신속
승인
땨랴
스킬의
다리를
Sy
##으료는
언데
라이프
통틀
##장갑
##리도
확실하게
갖게
느끼고
##르다
나뉜
주인공을
넘게
골키퍼
주인공인
##ull
자녀
##여가
유리한
##지사
프록
##걸로
대거
##중간
시리아
공헌
##화점
코리아
##본을
엔진을
앞의
데이비드
있겠지만
20대
##팀은
인도네
묻자
##타점
주역
181
ㄸㅏㄹㅏ
알레
##러한
최ㄷㅐ
둘을
1944년
내야
설정상
##ㄹㅓ한
남을
##포먼
##ㅆㅓ
의식을
기사를
##드래
억제
##노트
토르
노스
간간
용산
1961년
##파는
어드벤
최적
투명
##편에서
일곱
비틀
측은
언급이
비극
##층의
##실점으로
잠수함
마감
번째로
가해
받으면
대신에
제한이
##관계를
십자
##환경
##권으로
기도
##오면
융통성이
겁니다
모습도
브라운
극히
막상
지나지
원더
##수리
##row
##치아
기동전사
##체스터
느꼈
선수이다
연기를
10대
초창기
ㄷㅐ한민국의
도덕
##저씨
슈퍼로봇
새누리
무ㄱㅣ
도움으로
축소
고맙
번에
크라
고쳐
맞을
오마
##인듯
##님께서
너프
프리미어
이려한
제10
##르타
괜히
승진
막강
이ㅇㅓ
빼면
1994
##거든
방영된
자유롭게
##산은
기갑
플ㄹㅔ이
##레옹
##Hz
흰색
ㅅㅐ로운
막고
생방송
거기서
등장하며
##아아
있ㄷㅏ는
성과를
별명이
반달
##잡이
##멘트
##있을
새료운
있댜는
정확하게
##강을
학교에
경우를
제네
##코어
우익
신사
철권
##순위
##놓는
숨겨
트루
등극
##감과
틀어
쓸데
문는
##열이
자꾸
그들
124
##ㅊㅣ를
##카이도
정도였다
움직임을
##au
##기준
마다
힘들어
##겠다며
기생
보험
지점
토요
소식이
약화
영주
세상에
제트
러시아의
분해
서비스를
##위대
##교도
뒤늦게
논문
이하의
##임으로
에디
##서와
일격
않겠
방탄
스탈
##쥬기
전체가
##하진
라그
고속도로
비웃
128
##인데도
하에
##렐라
For
##가루
지녔
여유
##해주세요
##란히
115
##장전
호과
##살이
##업에
브랜
노리는
차가
가난
콜라보
1995
듯이
타쿠
죠선
##합ㄴㅣㄷㅏ
경험을
##ave
김준
기회가
양손
사제
신중
프로그래
햐지
제공하는
기기
각자
크기가
백제
이강
볼트
##레가
일방적으로
잠실
ㅊㅏ단
무기가
정책에
오락
동ㅅㅣ
말투
토론에
감독으로
##즈에
개척
벌인
##면으로
주교
##항목
백인
당할
딜을
적당한
지낸
시간의
귀엽
모집
##2의
곡이다
않야
끊어
압도적으로
학부
스포일러
ㄱㅣ존
저택
상태에
그러니까
##했기에
프로리그
긍정적인
아파
아인
##합이
것인가
걸그룹
이상은
넘ㄱㅕ
블로
##ㅇㅓ를
팔을
##무의
너는
5000
설치되어
다녔
기사가
돼지
일기
##ㄹㅣ그
일어나는
우크라
상대방의
##츠와
부르며
안으로
천천
손오
##관에서
Qu
정체는
벽을
잘라
넘거
##28
범용
기술로
복제
##럽게
선수는
##백이
##는데도
오크
위력
적고
야쿠
반응은
퇴장
##anc
구경
LIVE
센트
유카
차지했다
가려
연습생
본문은
##시안
정뷰
박성
##지능
쓸만한
도착한
자바
그러므로
호평
##절을
노ㄹㅐ
연쇄
ㄱㅖ정
챠단
##ION
##감은
주목을
거둔
플레이어를
투구
##구요
##기획
유나이티드
##토니
##훈이
이닝
용서
사자
생각은
업체
조언
설명은
면적은
않ㅇㅏ
콘솔
지냐
베를린
스토리를
모듈
자료를
##결을
이슈
sp
쏘는
조금만
하향
##able
극중
출격
편지를
Ver
파는
이병
It
유입
먹으면
구슬
ㅇㅏ직
로그인할
##하더라도
##자책
축하
계열의
##작전
스핀
노려
식품
조치
##렸다고
마린
##ㅈㅏ로
##렸댜
시리즈를
##ii
폭탄을
인물이다
사건은
좋다고
특징을
어이
##음으로
남아있는
177
##ution
폭행
제외하고는
주사
오라
##터널
반지
Joh
##int
계정들과
길고
도구의
야직
함부로
##우면
불ㄱㅏ
103
여섯
##모는
분산
자의
##하고는
재회
명문
뮤시
유저들은
누군가
112
##out
여담이지만
##디스
##스트는
가능성을
곡으로
대조
Col
파울
죽게
##터와
우측
##ition
SU
버리는
중동
샤를
상대에게
불규
흔한
생각한
##거ㄹㅣ
슬라이
닌텐도
불갸
ㄹㅔ벨
비유
국토
중국어
날리는
엘리자
##렸ㄷㅏ
못했던
##A의
북위
마법의
원시
ㄲㅐ
##ren
목소리를
그나
스트레
너희
일단은
상식
개명될
여의
부분에서
##프에
물에
피해가
순환
##통녕
긴장
믿을
연료
베타
정도이다
스펠
kowiki로
임금
##극장
사용자에게
2020
본명
토마
##한국당
OVA
오버워치
##오기
스페인의
##곡은
900개의
끝난다
커녕
모티브는
스타리그
##진ㄷㅏ
쪽에
##디요
법무
쌓아
날아가
할수
항목을
수록된
서울시
ㅁㅏ찬
##박한
Star
거론
양자
우라
데다
##베르크
손꼽
먀찬
고종
않을까
즐겨
김수
사귀
적중
##진흥
이로써
위치하고
##인도
교류
##차의
##리한
어떻
여성의
만화가
시절부터
##보이는
##ㅅㅣ간
##파크
바둑
수여
묘듀
##엔딩
다큐
피ㅎㅐ
대사가
보편
서울대학교
북아
로즈
##합을
##테일
경우에도
##에서부터
압축
활동하고
##케이
이토
나ㅌㅏ
클린
##하였지만
실은
싶으면
우에
아버지는
##스텀
##견을
아끼
앤드
이른바
##활동을
보교
ㅅㅏ회
남는
영화는
인가
신경을
기름
우닛
20세기
##대신
부장
등도
가졌다
틈을
선의
나탸
고지
보여줬다
인쇄
지속적인
##TE
##론가
적들을
불행
##나미
김포
##iel
보통은
재건
##그가
도박
알라
##렸지만
Sing
##IM
역의
무시무
생각한다
품고
발견한
정해진
안경
ㅇㅣ름을
##형과
막대한
부러
##정도로
최순
안타를
싱가
##달러
명칭이
상하
명명
있습니ㄷㅏ
김지
##표가
세월호
남겼
맞붙
배드
자라
##린ㄷㅏ
##타카
##무는
1941년
청소
머리에
튼튼
악화
폐기
OG
카스
##런스
##히게
차이를
##지니
OCG
바위
교향
##ep
춤을
꼬리
미래를
##플로
형ㅌㅐ
설명이
나누어
화력이
담당하는
IN
##ev
미드필더
지는
일이다
관인생
지정되었다
납득
##거야
바닥에
복수를
참ㄱㅏ
있습ㄴㅣ다
금강
동일하다
새롭고
영양
온다
예정입니다
일정한
공경
능력으로
바르셀
올리고
##own
##이사
위키백과를
제자
총독
155
멤버들이
비하
VPN
##ise
유용한
기종
##열의
지연
예시
참갸
챔피언스리그
##션이
##수ㄱㅏ
att
진행된
##병기
##린댜
##나이트
여행을
정발
인구가
##됴의
##ㄷㅏㄱㅏ
유학
슈준
##라에
어뢰
##야와
가질
##ㅇㅣ의
포함된
남한
나갈
##하길
유망
##ius
잦은
##ㄹㅔ이
샤용할
황제의
위력이
등장할
이벤트가
좋지만
법적
가르쳐
##여도
ㅅㅏ용할
구축함
남양
선박
##댜갸
타마
165
성격은
고장
한창
드문
조리
##혁명
스코어
뵤고
##블리
출시되었다
지도자
##동맹
토오
애ㄴㅣ
##son
뇨래
pro
##시키면
좋아한다
선조
일행은
계획이
과장
마쓰
2010년대
난이도는
##ma
##문과
정도를
Di
##분으로
하였으나
권력을
케이블
수색
1사
ML
바가
1점
탄창
느려
##르바
버전은
신한
마무
제독
운송
갸진
##질은
합리
선행
##뵤댜
에ㅅㅓ
요브
동행
사고를
##니즘
매장
이경
##인데다
인조
좋겠
##너의
공ㄱㅐ
##포는
##아시아
손해
##이쟈
속해
##OU
##석으로
##팀을
1940년
##연대
최쵸
시청자
##적으로도
##혹한
왼손
##기어
뚫고
##담으로
##건지
##우라
시뮬
##곡의
따뜻
##개혁
박정희
On
동로
죠금
무술
진행되는
##했듯
문헌
1500
중부
##해주고
##본다
써야
처참
인스타
발발
기가
안심
##운트
##었는지
간섭
억지로
실용
웃음
딜링
레이드
출처가
##연구소
10개
가람
145
대해서도
표면
장거리
전까지는
처음엔
##장치
##처를
샤회
사랑의
토너먼트
테라
##하하
쇼핑
##몬의
gt
리틀
##ser
사신
카자
투척
측에서
정류장
열고
##온은
경악
경호
것보다
두번
##스러워
어렸을
만나는
##ject
어빌리티
많으며
진행하는
##랴면
##햐자
2집
표지
넘어서
치킨
피의
항공기
것과는
지키기
영화분류
##생활을
월간
미러
##스도
##rib
들어올
이모
##올림픽
무사히
편집하고
산탄
느끼는
9시
노리고
인신
##크리
##폭탄
제공하기
피해자
이어진
리처
보좌
지붕
ㄴㅐ용
공간을
슬라
신형
제안을
안산
중화인민공화국
수습
않다는
##네는
보이는데
호불
Gu
수퍼
8년
몰라
##구장
1일에
##차게
메이지
중요하다
##들고
##리던
배제
##변을
호의
프랜
엑시
감샤
뜻1
19세기
순수한
도적
ㅈㅣ원
##맥스
하라
프레이
1954년
경성
전락
번도
카드로
##land
파란색
##소나
전라북도
무엇을
it
신부
순으로
ES
##스틴
##기게
공격해
만만
유ㅈㅣ
커맨드
진짜로
발탁
선수들의
유래는
선진
지경
부친
보면서
보냈다
##셔도
키가
연봉
스파이
죄를
##러니
질병
이곳에
땅볼
방식은
소련의
Blu
따르는
##여로
김유
담배
##ism
##미아
밤에
시범
사용했다
##능력이
1955년
미쿠
단행본
조우
석사
세뇌
어떨
반란을
디즈니
##추는
##생물
봉쇄
##88
연령
퇴각
90년대
과거에는
찰스
문제의
동문
##sc
이원
DNA
가담
ㄱㅏ진
블래
##우드
Mus
의문을
신동
이랴는
##쉽게
남동
사로
드래곤볼
##사리
##ey
##ㅇㅣ자
##킹을
##이센
##ㅎㅏ자
해준다
제대료
##검사
차이는
부천
목적은
없ㅇㅓ
달리는
##irl
##제도
청춘
IM
1958년
119
크래
주류
장성
전력을
동북
작품이다
뜻이다
##매치
강녁
##했ㅈㅣ만
1956년
부부
쓸만
동점
최저
트라
거는
몽녹
일본이
이현
관계는
전쟁에
유럽의
화재
자금
대통녕
전통적인
성씨
##해줄
##봐도
규모의
전체의
강도
물이
않았다는
Gl
입대
재배
##도리
##up
마스크
부가
##해보면
우크라이나
##미한
##티의
루카
조용히
여우
##코스
회사의
상주
뵤존
하나만
소중한
넘치는
##싸움
크레이
감ㅅㅏ
혐의로
##부문
병과
##km2
맞춘
평일
쿠데
쓰여
##고와
##실록
침투
성적은
타ㅇㅣ
me
ㅇㅐ니
지지를
천문
##고등
태어났
레ㅇㅣ
했었다
##BN
ㄷㅐ통령
달의
소문
아츠
야간
##졌으나
개를
전원이
##노와
##건은
역사적
플레이가
벌여
야이템
##요한
##있ㄷㅏ
불려
화제가
설령
공수
MAX
모은
##서야
프론
공감
##베이터
결혼을
남쟈
나타내는
##품으로
큐브
순천
구간은
뛰ㅇㅓ
##규가
뚜렷
거미
##결승
휘둘
뛰여
전뷰
단백
2위를
##이아
짐작
One
우정
되었다는
불사
들어와
일컫
##장군
늘려
##더러
코스트
핑크
최연
유혹
필립
##줘서
실질적으로
보스턴
##텐데
가죽
##uk
ㄷㅏㅅㅣ
후일
오다
증가한다
탄압
약점을
##음은
초콜
시사
wh
Dr
달라고
왕복
일본군
유료
Ser
민주주의
정도료
##렸는데
##목이
##출을
기대를
못하면
파크
모델로
##있댜
좌측
누나
참ㅇㅕ
##실과
Vol
같다고
신뢰할
Rev
1호선
동성애
지방의
오로지
##률은
치즈
뮤기
##상으로는
아지
리버풀
##들됴
낸다
##르도
미국과
드릴
통용
부스터
##토미
##들처럼
영혼을
성적이
스스
##청이
##무늬
보드
혼합
되교
보정
많을
모순
수월
미키
##지갸
엔터테인먼트
비스
미국은
주의할
바꾸는
##ㅊㅐ
##인치
3개월
지역으로
##yle
##GB
반짝
아래와
기샤
##고기
##ital
##책으로
바이올
디시
골렘
터널
아들인
뿌리
1943년
친척
역이
뉴질
아서
페이즈
대미지가
CH
##작의
레이더
##번은
캘리포니아
들어가면
아닌데
##중을
Op
모터
##타마
주차
##보우
##출판
2호
우일
템플
하스
있ㄷㅏ고
소속으로
그러니
##가면서
슈ㅍㅓ
입주
##있지
경직
##공화국의
말라고
15년
치면
정됴로
비교하면
스트라이크
##랴의
점유
사천
##만화
히든
주셔서
##량에
##타자
지구의
##대교
알려졌다
전향
선택한
우호
##니에
##구조
경제적
공인
커리어
반면에
특히나
복무
가만히
나이에
등ㅇㅣ
서서히
피부
유산
신학
마틴
##녁이
등장하는데
알아서
파멸
우울
성의
100만
미루
##너가
##기ㄱㅏ
##스와의
않으므로
생각하
##ㄹㅏ의
스텝
철도역분류
##삼진
##라이브
이외에
성유
버스터
시작할
학생회
점입니다
DF
##민과
음모
끝이
공간이
생각해보면
답답
고무
시작된다
마루
아니ㄹㅏ
연간
##ㄷㅐ학교
남ㅈㅏ
놀란
##역이다
최상위
제목은
뒤집어
광산
한양
##고시
##초의
초반부터
##ㅅㅐ
108
전반적인
와카
##온을
방위
파란
상하이
발명
##정당
광명
##비행
##이랑
특징이
보유한
##46
즐길
운이
힘입
쓰게
간간히
어필
##뮤직
##석과
짐승
##영과
카츠
left
##프스
둘러싸
비주얼
##령으로
##명이다
시외
단어를
당한다
실수를
질투
##관련
김승
카구
##주의자
마력
버전이
나노
주위
빌딩
AN
버그가
폴리
타츠
텍스트
나왔던
적ㅇㅣ
##형에
개봉한
##가드
그해
규성
ㅇㅔ서
사라졌다
이해할
##훈의
유감스럽게도
여럿
절친
의미합니다
자랑하는
##지나
세웠다
발생할
태국
##인ㅇㅣ
개념이
엔드
동급
##째로
조카
##전공
##풍을
127
여ㄱㅣ
암호
##미르
##위원장
즉사
측의
가진다
의정부
초상
##룡의
데빌
위상
평행
##론과
##질적인
도요
한방에
##네마
감각
계기가
웨이브
##해온
붙인
향후
찍는
초청
특징은
살던
몬스ㅌㅓ
우루
집필
클라우
얼티
123
1등
다녀
웹사이트
나지
걸즈
대수
위주의
##뷰를
기여를
##스갸
##층이
일부가
부속
##거래
라이플
사촌
##리코
영향력을
마산
챠지
##테랑
호수
퍼포먼
##저우
페스티벌
사용되었다
선거에서
##시커
중구
그릇
2만
ar
##타리
역시나
히나
입문
관인생략
설치된
프로레
##스ㅌㅏ
최종적으로
국어
##니시
후방
평가는
##에른
학교를
피가
성향이
님이
증오
##45
##레오
몬스텨
이번엔
제노
##달아
의미는
##능을
지고
박영
특화
##티즌
아울
##하겠다는
방송국
우르
##isc
루머
ne
##재의
성경
##학회
##가기
그런ㄷㅔ
프로게이머
##군다나
외곽
220
배우이다
이윤
너뮤
우회
NHK
3분
##스토리
3으로
남동생
매니저
봤을
폭파
사가
대표하는
작품으로
상담
천천히
GP
탐정
즐기는
여지가
사람으로
고마
시마
재등장
말과
할지
##님께
ON
방식의
포스터
##적이지
OP
1947년
갈색
1952년
Cont
수염
##ero
아래로
화려
##것이다
##모스
트릭
벽에
점과
##오게
##천을
반전
녀무
포획
한가
플래시
##행성
##리시
성직
##으신
같댜
활동이
##테이션
자신들이
##무스
열매
당당
상무
쥬세요
던지는
##세기에
인연
적시
먼져
##하여야
않았기
태양의
넘ㅇㅓ
표절
##리기도
##하자마자
##EE
있기도
끊임없이
평택
나폴레옹
RA
열혈
실내
공식적인
주축
위키백과에서
부유
하댜
스토리가
##족은
찾아볼
빛나는
트래
주세오
##형태
것들이
일시적으로
ㅍㅏ괴
퍄괴
유지하고
시키는
투쟁
1959년
관료
코토
##신도
학문
딸을
일으키는
lt
##리에게
1권
움직일
근거리
남기지
보이스
##미사
같ㄷㅏ
근거로
획득할
ㅌㅏ이
Sw
이념
상단
모드를
잡으면
통화
가능성은
선사
낚시
##ike
30년
ㅇㅏ니라
##경기를
##36
중력
시가
뵤통
감상
##폰을
GO
노란색
브래
##호환
인상을
노무현
특성이
않았으며
싶지
괴수
재학
##ㄱㅓ리
##앤젤
상대할
##년의
##버가
하ㄷㅏ
햐다
La
살ㅇㅏ
찾고
BC
##두면
오우
##바야
빛이
지역이
뵤인다
길어
3기
##ole
##26
실제료
일으켰
##집에
##등록
좌익
5위
##스탸
달하는
아베
날이
털어
우위를
야래
노력을
가공
아ㄴㅣ라
드루
세계대전
볼수
##락이
않았댜
해당한다
먼ㅈㅓ
##방은
활동하는
ㅇㅣ에
##음의
##ina
드라이브
##감도
수류탄
사이클
가기
##게이트
않았ㄷㅏ
오렌
ㅎㅏ다
사례가
불태
##번과
히메
누구나
이브
할인
끝났다
##술의
머신
158
지닌다는
스코틀랜드
ㅂㅏ람
데이터를
알교
이ㅇㅔ
##29
이야기는
##계와
뜬금없이
360
176
어리
구성원
시인
##글을
착한
외야
곤충
##ife
##초를
##지대
보ㅇㅣ
1942년
비난을
소문이
현상을
작화
##박이
디바
##저리
흥미
조기
화폐
##게는
진급
상태의
보인댜
대구광역시
들어갔다
도시를
응답
##들에서
퍼즐
식량
끝나는
KOF
알았
급행
사야
샤람이
##께끼
않으니
위엄
감정이
##시키며
DD
점에
제1회
##물과
이누
금액
##하곤
##족과
항공모
기부
##ons
패배를
작품에
무섭
닉네
극단적인
참모
역사가
##연속
고고
사업을
대다수
빠져나
개인적인
청와대
##프란
인텔
##피가
비공식
사태가
들어오는
단위로
사라진다
##리스의
줄거리
사시
##타니
더해
주면
##bb
##했으니
필요할
전두
##ax
##했으머
망명
모티브로
감수
##내의
##년에
도와주
어벤
평상
##쿠스
매드
메이드
깨끗
생김
대의
pp
III
집어넣
##도서관
ㅅㅣ스템
세번째
##ose
종영
구독
고육
##버지
양이
포도
뱌람
슬픔
싶을
기술의
쥬장
참어
억울
저지른
모두를
확립
모습에
전선
##했으ㅁㅕ
##왕후
포수
기술은
연예인
출루
프랑크
Is
충돌합니다
##스피
원숭
코스튬
지나면
잊지
얻는다
##히면
핀란드
캐스터
##ㅁㅏ다
케빈
##생으로
##달라
##내어
환영합ㄴㅣ다
##담이
##적이며
유비
##렸습니다
건립
소용
##뉴얼
빌리
연결되어
그후
이익
##족으로
백업
입구
필요로
도시의
##슈는
전격
치명타
정반
##으ㄴㅣ
주제가
다음은
트럼프
맡는
##나로
Sou
##ㅅㅔ한
TVA
6시
김광
손상
좌석
마냥
기적
디펜
인공지능
Am
가량
보강
학사
초기에
협상
사진이
##금으로
이진
바에
요히
어마어마
휴식
고소
##내면서
##유리
제작진
##ㅂㅓ스
##특별자치
환영합니ㄷㅏ
##병과
헝가리
내렸다
1953년
앨런
이틀
탐사
상을
경부
탐색
##죠의
##히코
선수의
정교
프린세스
##르드
##호에
박물관
어성
소스
배려
##아야
##먀다
##쇼를
쇼속
재산
SA
##마귀
##자나
##gr
용암
##여야
오ㅎㅣ
Kn
##루미
포지션은
앨범을
않았으나
산하
##있었다
한반도
적절히
##오자
##성한
ㅂㅣ교
##히메
168
무소
취업
주시
편으로
도저히
안되
성격으로
구간을
##파와
2분
업적
별명을
슬레이
##ㄹㅏ이
일반인
일어날
ㅍㅏ일
수상한
##로이
##생명
주시면
랜드
선포
포스트시즌
정신이
##봤자
##나에
계정을
##함의
결투
156
교정
믿는
얼마든지
##해요
from
뜨는
총의
##하지도
외래
우치
##MC
IR
##achment
마신
바뀐다
배운
알지
이라크
20분
조회
티어
자막
됴시
##소송
내리는
지키고
츠바
뽑는
넘버
##기료
승ㄹㅣ
4명
전동차
일본에서는
플랜
찾아온
##라미
##너를
검은색
비롯해
한신
##더가
211
흐르는
누구도
##스테이지
Comp
##lect
##MB
ㅇㅕ성
동일하게
##데레
##리거나
##여의
차고
##구청
원조
Season
체감
손자
태도
쓰러트
나머지는
스티브
불쌍
리그의
하단
사용되고
고통을
##규는
굉장한
텍사
뱀파이어
##이한
개념을
약혼
Windows
이해가
크리스티
시골
한국은
담고
중소
##후보
##편으로
연구소
##할만한
와타
돌고
시작해
싱크로
편집하시기
자제
발레
소통
먹는다
##그로
4번째
두는
And
아니기
이오
##니코
##말에
거인
##와이
가리지
가디언
발로
##yn
기억이
CE
##und
##측의
##산동
##려운
##만으로도
139
헷갈
시크
##이었다는
기분이
엄밀
ㅃㅐ
모에
##됨에
그곳에서
개최된
특급
하우스
햐면
호칭
광복
질문해
하프
##ㄹㅣㅇㅏ
##렸다는
인게임
쓸모
장미
한강
##석에서
어디서
##환은
오시
쿨타
스매
John
말로는
비서
##ans
급속
##결과
있겠다
ㅎㅐ도
걸린다
##벼스
##ㄷㅣ오
##ㅅㅏ는
창의
힐러
##1의
한마디로
개국
때문이댜
##쾌한
##시청
남매
손쉽게
페미니
살야
##화하는
##마치
세우
운영하고
인물은
준수
실린
문제갸
적으로
수감
발각
냈다
대통령은
##병은
암컷
ㅇㅣ번
ㅎㅏ면
ㅈㅏ신이
의미하는
attachment
감싸
실ㅈㅔ로
2사
드ㄹㅐ
목적이
서로의
라스
장례
실패한
163
안보
특슈
앞으로도
소규모
이댜
되었던
단기
웃는
커스텀
퍄일
미노
이행
이노
GB
학생들의
업무를
해됴
1992
스쿼
믹스
듣게
세웠
##서리
##왔을
에이지
##시ㅋㅣ
복장
빠르고
##사거리
##버드
ㅈㅏ유
장탄
계단
##나지
소집
##련을
지속됩니다
때와
유재
지원하는
착륙
넘기
세팅
청구
##아키
문의
ㅆㅓ
참고하시기
##쉬를
신발
##됴로
##저런
빨간색
##채널
궁내
발키
거지
##공주
유선
##링크
상태이다
##되지는
약속을
민중
일ㅇㅣ
기본으로
##름이
하반
##운드를
##전도
##ru
##ount
##님과
장면에서
아들을
##권에서는
벌레
강간
신축
1993
스나이
##산화
##린과
인터뷰를
사람과
글은
맞는다
쓰던
##gh
##레븐
로렌
##러운
트랜스
던진
기묘한
아이디
##보세요
##학부
사용하며
좀더
##독한
리스트
없여
##ㄱㅣㄱㅏ
##스테이션
키타
135
이대
에디션
곳곳에
##법과
PP
탈취
위치가
그래셔
미국이
자신ㅇㅣ
교차
전인
##방울
스파이더
에드워드
대마
풋볼
여떻게
ㅋㅐ릭ㅌㅓ
읽고
전쟁에서
결국은
올라가는
편인데
##스ㄱㅏ
앞선
좋ㄷㅏ
붙는
##안으로
농민
요소를
것이기
겹쳐
##af
다케
찍고
짜증
##인드
Bo
210
좋댜
##견이
본토
주니어
##주인공
운명
106
짓는
포함해
동서
126
황태
매각
##비나
영원한
지혜
오이
승차
정신적
모델은
국ㅈㅔ
내부의
준결승
시공
결정을
끌어올
##드컵
정뵤를
타율
목표를
##이거나
##여행
모스크바
##00만
함수
나라를
차량을
극대
##루션
죽으면
인벤
성공적으로
##길이
오면
NBA
성공을
10시
나중에는
불필
118
플라이
5대
머리카
##ㅎㅏ는데
기록하였다
##비야
##철의
슈퍼로봇대전
##ㅇㅔㅅㅓ도
1939년
그루
##위와
##왔는데
원년
병행
##마ㄷㅏ
스즈키
##이었을
아버지를
##네이
진행된다
조언을
사라져
에로
유한
딜레이
자이언츠
162
학교의
##vert
정해
가까워
삼고
Ge
베이스볼
김윤
##카미
##들에겐
걸친
쥬로
Day
초콜릿
어긋
포기하고
편이고
김병
자칭
고등학생
나갔
운영을
임진왜
발간
묘사가
TR
스스로를
이그
직선
표정을
시게
##셨으면
블리
선을
축복
##네를
이태
명탐정
주십시오
대접
기를
덧붙여
인식이
초에
손이
주포
University
심해
승부를
##는ㅈㅣ
고난
생태
BJ
선발로
##격은
하이퍼
고립
신생
낙하
터져
내외
서명
형태가
상징하는
##론에
##느니
본작의
편은
##열차
Mag
164
놀랍
프랭
경유가
대전차
마땅
변한
Korea
크라이
끝나면
##버튼
고ㄹㅕ
포인트를
##현과
##하르트
구체적인
결의
샐러
##마로
승니
애완
남자가
장신
표현이
##혀서
원수
언젠가
확정되었다
##러브
그렇기
내용으로
그레이트
루나
북동
스컬
판정을
tvN
친규
마치고
협동
웨일
사망했다
스타디움
움직임
##즈로
공격적인
##국인
행복한
진에
116
유니크
끔찍한
형편
캠프
퍼져
109
##보지
##풍의
로이
골프
사고로
모음
차지하는
얼굴에
나뉜다
개업한
성향을
지식을
##리스가
##릴라
그대
원형
침착
##빌딩
##35
157
기여해
##셔의
##됴는
싶다고
1951년
104
##ild
않으나
의지를
방어력이
즐거
문ㅈㅔ를
콜롬
좋아서
일리
여성이
##리아를
받기도
##사도
##작인
흡혈귀
못해서
건네
규모가
마오
한성
갖춰
거다
설ㅊㅣ
##FF
갱신
##요의
##ㅅㅣ키
토우
스ㅍㅔ
신세
AA
얻어맞
맨체스터
메디
152
동맹을
즈음
그렇ㄱㅔ
나왔는데
듣는다
박진
이루는
##ㅅㅕ
배가
차지하고
시즌이
어울리지
##에셔됴
현대의
마스
##하였던
1920년
##쳤고
##할지
허위
##햐였
1957년
종사
##밴드
1938년
##시간에
어머니가
단발
만능
무기의
소프트웨
용도
메구
선수들
로스앤젤
##ㅋㅋ
DE
오기
유동
유일해야
권고
레일
변해
세라
급격히
챌린지
##란에
발매한
베테랑
노선은
##분한
게시판
비가
이곳에서
##텍스
더군다나
날뛰
하츠
##ECT
경우갸
않다고
이마
만들어낸
##감으로
##렸으며
##시간을
프료그램
Comm
##1동
법을
##소리를
어색
아나운서
트위치
가벼운
변태
154
요금
테니
일하는
##클레
##바가
스ㅌㅔ
##시스코
트랜스포
##가던
명백한
삭제된
개장
##이기됴
##자동
눈치채
노가
아벼
##ress
수치가
하인
노인
2경기
미묘
게이머
할로
패턴은
##구간
소니
체코
섭취
##마냥
열대
##조와
##부키
유져
서로를
무궁
주의해야
설이
할때
역이다
끼고
영향이
##퍼드
제19
부르기도
생체
##엘의
이펙
관광객
사고가
항해
현황
##주의적
썬더
스피릿
ㅅㅓ로
프로듀스
그녀에게
한번도
##심은
후회
##되었다가
되었습니다
이걸로
##화에선
지우
##커는
1초
육체
##리학
묘델
전임
맺고
##마댜
바이에른
##값을
살아있는
오를
방을
##ual
##ㄹㅣ지
분홍
##에요
아ㅂㅓ
##록을
무대를
관해
일행과
답변을
대가
네티즌
7시
##장비
다닌다
성폭
학교에서
만들어서
뷰분
정상적으로
주니
섬에
미쓰
조건으로
인간과
자체도
##청의
111
도망치
김대중
슈가
검열
승리로
요미
자전거
강해
오른손
ㅅㅑ
##eth
오고
1턴
##니스트
ㅇㅣ벤트
##오면서
나오기도
오스트레일리아
신데렐라
않았는데
활용할
상인
나오면서
8시
##버블
데미지는
##공으로
##어버리는
강동
소득
조치를
포털
감동
투니버스
토큰
이럴
왜냐하면
분노를
멤버들
##맨을
수장
##노스케
as
##령은
시리즈에서
온천
안타깝
방법도
##기구
호시
프롤
충남
면모를
귀하
##버의
Tra
146
드ㄹㅓ
실험을
전제
Res
명성
Single
감탄
일베
특전
되니
##서스
브라이언
시체를
공학
2장
##ery
CR
휩쓸
##ㄹㅕ는
사로잡
시에는
차량이
MM
##그의
##했ㄷㅏ고
돌아가는
배구
ㄴㅏ타
##작은
##타이어
입장에선
거두었다
##★★
공부를
멤버로
롤드컵
길라
둘다
와이번
##아트
신념
아유
패널티
트윗
##탄은
불리한
미소
파밍
올림
##음과
비판이
##두로
끔살
모인
자를
보내고
검정
실점
전ㅎㅕ
의사를
##녀의
뱌뀌
무리가
토니
2세트
주오
폭스
AV
이천
체인지
디자인이
안습한
1990
비전
144
##건담
10초
힘의
놀라운
우즈
이번에도
##들에게도
EU
라인업
##베이스
냐타
##종으로
요르
오청
무난한
##받게
군수
입지
1이닝
피로
107
건물이
ㄴㅐ용은
있기는
완전ㅎㅣ
무용
전ㅇㅔ
##쪽은
전허
##광역시의
##교로
고리
ㅂㅏ뀌
이겼
1970년대
전담
ㄱㅖ획
플러
상태였다
학생들은
헬리
인간은
원주민
##여는
불멸
소수의
남게
메트로
이루고
##권도
아군의
극한
김주
어렵지
방송에
경연
남의
결정적으로
바뀌는
미국인
##층을
싸움이
##되어있다
##량도
킬러
1988
153
마을의
올해
포장
금요일
##주의의
5천
##냈고
##대학고
하급
조명
따르
최악
시모
영등
ld
203
아이템이
시대를
영어로
##훈을
주행
섞여
평창
그ㄹㅣ
##쓰는
##ㄴㅐ는
아무튼
하려고
##샤와
##칸센
명으로
보우
##블을
CM
모습과
몰살
하쿠
##녀가
깊이
117
자국
대면
##리스는
ㅈㅣ속
황후
대부분을
교양
외뷰
Gen
장본
##번으로
대책
작고
해준
##지다
발생했다
##정하고
기사단
8개
유언
##ton
구동
병역
ㅇㅕ기
MG
편이며
성격의
극도로
선동
스탠드
##지막지
##ham
난이도를
별개의
하늘을
높이는
깎아
사용을
적합한
특화된
실력은
여쟈
팔레
포로
이런저런
프록시
전체에
훈장
묶어
##티노
사이코
##기자
##액션
뒤의
##바퀴
지위를
뷰족
##비시
ㄷㅔ뷔
##무쌍
##티가
플루
진행되었다
##돌프
mm
대학생
뜨거운
사우스
##니야
등장은
주자
적용되는
두들겨
엉덩
##년이
1930년
161
##편성
유닛의
오케
권유
쇼환
##조정
##2동
##테크
부실
주료
##세와
WC
약을
##ology
##발전
##천사
버섯
서포터
덴마크
로고
##업체
샤실상
제공한다
도모
EN
##클리
나오게
비행기
경전
때문이라고
보입니다
##벌을
##불명
게임으로
일어났다
주어진
번ㅉㅐ
149
ㅅㅏ실상
라스트
승무원
Mi
든다
피난
##그레
공화국의
중견
##줄을
파고
밀리는
정도면
제목으로
##to
생명의
##받침
학고
트라우
350
끼워
진행할
수천
미션을
LP
혁신
ㄱㅐ인
히로시마
##형인
##ater
자율
##마츠
리오
적용된다
align
1세대
골라
일조
고블린
엄연히
키를
##ㅇㅣㅁㅕ
##ins
건드
이용객
113
ㅇㅣ어
최정
상성
올라와
Par
right
빌보드
##ㅎㅖ
##금융
ㅂㅣ슷한
공산당
Gam
소우
##년도
사용시
남학생
##요를
놓여
써먹
조상
모델이
클론
마친
##회복
##녀를
##딜을
1914년
먀을
컬렉션
블랙홀
기준을
게르
##ㅇㅣ어
국ㄴㅐ
님의
옵션이
166
넘여
그려냐
##례로
가치를
노조
##TA
ㅁㅣ국의
권리
재임
역은
##락의
도약
##내서
##uck
허가
아르헨티나
##vel
무거운
##hw
전략을
부패
리처드
과정이
모양으로
희망을
미래의
그란
##ㅎㅓ
죄책
본관은
그ㄹㅓㄴㅏ
col
오세
충격적인
엠블
받아서
후보가
만ㄴㅏ
꺾고
어드벤처
발전을
중대
마을을
##널드
##ㅇㅔ서의
여ㅈㅏ
밖의
팀으로
제목이
키라
##시민
##BM
미나미
게임이다
##도ㄱㅏ
다루고
포탈
##화학
해에
은폐
PV
PK
격퇴
##우치
출산
그래서인지
ㅁㅏ을
재발
적게
신칸센
싸운
담아
평안
##시키지
##총을
##OID
30초
광범위
냐오는
야예
구로
##링은
아님
위원회
노비
중시
확신
아사히
스트리머
엘레
불만
수신
시종
빙의
라이선
##에ㅅㅓ의
##안군
##ium
존재로
##냐의
팔아
비율이
##했으면
단독으로
반동
##배가
뭐가
꼬마
자존
편에서
##각의
이유도
막강한
민주화
상속
없었지만
TS
167
##테니
어울리는
전동
##로이드
칼로
크롬
##inal
##대고
뜯어
본부
##도라
이아기
##타인
서머
마드리드
옆에서
울프
##ㅈㅏ인
탈환
몬스터가
##우스는
무기한
자ㄱㅣ
Gra
##피안타
언데드
아이가
##msys
브ㄹㅏ
여기서는
##ta
되어있다
장착한
ldmsys
드물게
플라스
신지
##시요
것ㅇㅣㄷㅏ
등녹
회차
고사
##쟈인
인도네시아
취미
영웅이
채보
가이드
넘어가는
##ㅎㅏ였고
한국과
##피는
분신
슈트
상냥
북서
##클래
셔틀
도시로
원인은
##면은
나요는
원작과
Do
해머
##직에
##ㅊㅔ를
올라갈
인문
##훈은
입원
실ㅍㅐ
##대기
선수단
대외
2점
허무
낙선
##자이
모르게
내러
##경으로
조사를
숨을
안개
전작과
뽑을
벌이는
##심에
1919년
전과
##주군
해소
이준
제약
##상자
링크ㅇㅔ
통솔
my
내게
Ro
반대하는
원피스
정한
##작품
##실험
##근이
미궁
후임
인스타그램
참가한
최진
소식
##브레
##졌기
멸종
사와
##거진
네임드
##하자는
현ㄷㅐ
대회에
쓰이고
식사
##rist
##연상
##인민공화국의
간략
권위
연타
##색은
2차전
At
역습
ㅅㅏㅇㅣ
정성
적힌
설명하는
두개
ㅈㅔ공
##제작
이메
##태가
하신
##화되었다
사망한다
트레일러
##했음에도
적극적인
##대체
##바리
해치
과격
마음대로
자우
출동
얼ㅁㅏ
##공단
약칭
재능을
얼먀
이동할
2에서
브랴
셋째
Tem
않는데
무쌍
무죄
##리타
##ㅇㅣㄹㅏ
불리며
이름에
있었기에
조차
라고도
##창이
엉뚱
##ING
Black
프로그래밍
시트
##햐기도
##이크를
거라
주거
1을
가자
도깨
여기저
노린
프로이센
중후반
시작하여
##way
##ㅎㅏ기도
이른다
코미
세르비아
하ㅈㅣ
##무로
모드로
쥬변
##철이
분노한
Dig
일본판
매출
기ㅌㅏ
너를
문이
122
Air
ㄹㅔ이
속도는
동명이
보상으로
아군이
센트럴
##랄한
분당선
출ㅅㅣ
틀린
##왕과
펀치
##내에서
범위를
중거리
실패했다
서번트
이광
1991
루마
##망의
속성을
데모
데이트
헬멧
돌아왔다
##마르
우스
하려
5인
무시무시한
##패스
그ㄹㅐ도
##cal
굵은
##CC
소ㄱㅐ
##터에
쟈세한
미국에
인물의
##연구원
##zz
섞어
레코드
안정적으로
##마일
유연
##롭다
수수께끼
바를
노란
기준이
괄리
요리를
나이는
입사
점검
휴반
##ㄷㅐ한
그래됴
##급은
철저히
##식에서
연세
추ㄱㅏ함
예쁘
반복되는
장난감
타이완
주장은
바랐
자원을
올라간
1936년
##하ㄱㅣ도
##제품
토대로
메달리스트
##두를
유니버
버전으로
신청을
##app
##호쿠
위원장
##ㅋㅐ
##머ㄴㅣ
래퍼
그룹의
##에몽
했기
10회
대피
아비
방언
능력치가
생김새
꿈꾸
캐치
##실점을
Super
몰고
깨닫고
성당
##불어
제작에
하이브
##IX
초인
되었으나
공이
활동한
11시
##uss
조직의
겪은
드워
##ㄱㅏ지
햐교
선보였다
올라간다
항구
보낼
소비에
유튜버
공무
지원한다
안젤
##작가
151
##상가
초과
##질에
5성
##세포
내부에
마이크로
##71
토크
오노
##거라
엔딩을
태클
보이기도
선겨
컴뱃
디자인을
VOC
블리자
화해
조선민주주의인민공화국
선ㄱㅓ
색이
##려야
크레딧
조합을
훔쳐
출혈
Per
114
혼인
##줄이
신을
난사
절벽
잊혀
슈록
해운
부숴
마찰
일본을
ㅇㅣ러한
##정지
주며
서클
##라에게
과거를
바람의
##전용
취재
ㄸㅐ는
패배한
개관
글자
고우
한국시리즈
##순환
커서
##류에
때문이었다
진술
샌프란
6번
이ㄹㅓ한
멋대로
마음의
횟수
동명의
편집할
재미있는
##효를
##중심
계절
레이싱
있을까
미치는
##쟈로
보았다
탓인지
##있다는
때를
정보는
102
김선
이케
##자리를
##보험
내셔널
리그에서
사실에
박상
편찬
짓고
이소
##시켜서
##으니까
##rag
올라왔다
왕위
사용하시고
다큐멘
샤라
사회의
행위는
속성이
상관없
##경ㄱㅣ
두루
하므로
DPS
##보며
후쿠오카
##템을
##들끼리
이별
여타
에밀
##티는
ㄹㅏ이
인명
Bat
덱을
창업
살아남은
LO
노말
장인
138
병력이
보잉
레벨을
낮고
선교
애쉬
버전의
수컷
그렇듯
##GE
신흥
소음
##yc
##활약
고로
##연은
알기
이전부터
##었교
명성을
등장해
보상을
한달
##년간
박탈
##ble
첼시
지ㄴㅏ
화장실
새누리당
sv
ㅈㅏ기
##ㄹㅔㅇㅣ
냉장
심의
혼혈
##경영
ㅅㅔㄱㅖ
듣기
##AND
##병에
시합
열렸다
하마
논란을
##슬로
유틸
여러분
외형
이처럼
##황후
발급
운행하는
대뷰분
##소수
##rd
트러
Yk
##목적
경기에서는
##버리면
아랫
불만이
멍청
웬만
3편
##ㅇㅓ진
샷건
직장
##재는
Ste
구상
과도한
한국판
##워하는
##하였다고
되려
한층
##야서
가능하게
하여금
고증
##총독
것들을
찬양
한계가
행동은
12월에
정밀
밀리언
짧게
토트넘
##지거나
청나라
싶습니다
악마의
##리아는
##포드
##으려는
##했을때
##상승
프리드리
냐오
##도전
살게
매그
유즈
##ㅎㅏ면ㅅㅓ
포맷
거점
모의
소금
알려지지
않거나
주문을
MF
잉여
##들이나
드러난
기구
모르겠지만
주인공과
바뀌어
발표된
홍진
##준은
사라지고
퍼스트
받교
ㅈㅓ작
연동
어머니는
장ㅂㅣ
##우트
포착
##데다가
뉴질랜드
##센스
면도
심ㅈㅣ
##잡고
선수들을
영화가
##수사
복지
대법
##차전
LV
높을
투사
예방
이가
밑에서
MSL
##입니까
VOCAL
프랑스어
소꿉
기소
샘플
합작
##층에
카테
##속에서
Ab
오르는
GSL
위험이
않나
결과로
##히기
차이로
##원인
울트라맨
고집
현존
두드러
디렉
##리히
되어야
득점을
영ㅇㅓ
김연
내성
입학식
몇번
##택이
##모습
##한댜는
##하기됴
##입ㄴㅣㄷㅏ
동아일보
NT
전수
당대
멤버들의
##플라
형식의
##된다면
조별리그
##밖ㅇㅔ
##텔레
삭제를
Fran
스칼
##삼거리
초등학생
박종
##걸이
##ator
제목을
부위
동구
가능할
없지
기간이
실사
않음
몬스터의
##내면
제17
Mk
##지ㄱㅏ
만냐
Dream
##퍼를
##지리
##범이
##미노
가져온
BBC
##쪽이
애용
##공은
섀도우
배울
가능하고
위해선
상대방을
CL
잡몹
씨앗
져작
폭로
##한ㄷㅏ는
지구를
##니카
야수
멘붕
선봉
창을
뻔한
##파에
일련의
재앙
단점은
##메이트
안고
##열에
쇼개
힘입어
간단하게
국적
사람ㅇㅣ
월요일
##되었교
사서
난민
ㅎㅏ지
Rob
주인공으로
로스트
2를
##에게만
양도
##조각
나눈
수요가
사다
경찰이
삶의
##추를
##디와
스윙
돌아다니
정석
그거
##두의
쓰려
다시금
히비
무신
##리아가
띄는
##레인지
##산면
삼진
확인되었다
높지
##였기에
석유
무지막지
한꺼
##극을
소중
왕조의
기숙사
때만
이어져
##자라는
##했는ㄷㅔ
마을에
때에도
##류와
깔아
경ㅈㅔ
통째로
GM
2화
기록하고
남ㅇㅏ
실업
##체제
살인사건
##한지
우유
감금
민병
디스플레이
눈동
재사용
크로아
워크
##례가
##람쥐
##너는
제18
비용이
되돌아
##데르
##오르
USB
추후
##프로젝트
주제로
가리킨다
##ings
치료를
엘리베이터
VOCALOID
캐시
텐데
생명을
##ll
성우가
검술
고성능
너무나도
##더링
10월에
주의를
차량은
##박물관
##방식
##FM
양반
이르러
유고
국가가
교실
대역
##라고도
##하냐
##AY
##쿠의
유아
이인
영남
Convert
##뷰의
##채를
아저씨
##금지
커리
눈앞
##필살
3초
편지블
존재하며
##총장
##보에
##지정
소속된
자체에
이기고
주장한다
##덕션
별명은
섬멸
근거가
##투수
이대로
5명
보스를
##라이즈
잭슨
원래의
부탁을
240
관장
다이아몬드
DR
창작물
등장ㅎㅏ는
시바
##즈카
감옥에
영화에
148
김씨
파일을
싶다는
쉽고
##터스
세레
사원
이름도
제발
최교
같다는
정체가
전적
##혼의
##ric
건의
##강점
이름과
기다리고
전염
남서
수급
디자이너
##irst
운반
실천
의원이
##하다면
##노선
관리를
5배
전대
항성
##폴리
문화를
아스트
토리
원내
텍사스
시리즈가
##플러
동년
궁극기
174
한겨
후반부에
보시면
남야
그리핀
부동산
고발
클ㄹㅣ
173
스노우
천주교
##란트
##77
임명되었다
물의
##볼트
##학년도
급식
1세트
동아리
생각하지
미만
성장을
즉각
선정되었다
2권
코스프레
제13
Sm
빈번
미성
Bar
맛을
중국에서
강민
이루어졌다
직행
불어
성균
중성
일삼
읽을
것이나
사거리가
맞춰서
법학
Str
##점과
예약
웨이
있는가
15분
친절
여부를
##테스
판ㅁㅐ
잡힌
참가자
신입생
172
실려
주를
아버지와
표정
무슬
인사를
찍을
성실
시험을
법원
쓰이지
불타는
드러났다
있ㄱㅔ
근로
연설
##urn
메카닉
대결을
##레이크
##진한
##쓰고
제왕
고의
##식품
##stem
면허
##강화
못했지만
밀고
컴백
배경이
이익을
공격수
##히토
##ien
##네오
##클린
갈등을
##조한
##ㅅㅏ로
##로소프트
##퍼의
의견은
##풍이
따지면
##았기
해당되는
선택을
김두
##겁게
스텟
##뷰에
얻지
##사에게
시작하면
##있지만
갇혀
##하듯
시카고
운항
무선
서기
##보ㄷㅏ는
ㄱㅣ타
제15
쪽을
##fer
##운수
##에의
Har
여수
등장인물분류
##하르
##가타
강림
광주광역시
아ㄹㅐ
##공개
애국
필름
접수
눈의
이단
강호
EB
모양이
안성
재장전
##전에셔
조항
아스카
활약으로
김구
##uro
##햐면셔
에일
일주일
##이트의
학생이
고르
사랴
합법
듣지
공손
알ㅇㅏ
##랍니다
원로
쵸반
##드래곤
##중에서
##자로서
발견하고
우럽
##ㅇㅣ브
잡아먹
##그마
##볼넷
##총리
쟈체
##가족
후한
마ㅇㅣ
권리를
우저
net
이기는
추천한다
방송이
관계에
Art
나빠
있어서는
편하게
단장
부대를
##노미야
##신에
호응
##ㄹㅣㄱㅏ
##소프트
1937년
벌써
산타
공백
울트
##가수
사ㄹㅏ
적군
의혹이
height
피규
도심
산다
추모
바꿨
모빌
옮기
중고
중앙에
##중국
##전에는
상태이상
##볼을
허리
기능은
코인
##이ㄹㅏ는
떠난다
춘천
영여
어설
방송인
출석
BE
박쥐
피고
3만
애초
팔라
능력과
해보
미국으로
5개의
중학생
피하기
##리니
##ode
타이틀을
활발한
있음에도
##ㅈㅔ를
악명
ed
흐름을
있ㄱㅣ
싸우게
##란은
소생
마케팅
##주면서
아레나
##조작
##회담
##우로
아니었
##ubl
##베트
##시에서
테츠
Ag
떠났다
윤성현
##zy
명예의
다니엘
나뉘어
147
##몬이
상위권
Team
3월에
토지
봉사
이복
누르고
2호선
로보
진행을
SV
히가시
홋카이도
현금
무늬
##도도
굴러
사이를
시조
에미
##포인
행동에
독일어
물리학
변수
쪽의
감행
코파
##빨리
해군의
길에
##키스
어려울
하였으며
후인
시간대
141
##유스
2승
##격의
##운동을
국군
169
마르크
##가에서
놓았습니다
##ㅊㅣ가
스콜
연합뉴스
##타르
인류의
##IL
것인
주석
##아도
만나고
카지
등장햐는
##희를
ㅅㅏ용자
호불호가
인생을
##공에
난ㅇㅣ
것이지
파동
감추
우린
경력이
ㄸㅏ르면
ㅅㅏ라
오페라
야마토
000명
없었기
##뵤면
명중률
키우
세계로
그리는
되겠
현재도
##까봐
고도
##요리
비중을
그러면서
라이언
서포트
Park
##방어
드ㄹㅐ곤
구형
##해볼
##애를
##더는
안전한
##나리
불참
일각
3배
##케이션
땨르면
나타났다
바이러
레인저
페르시아
Sk
테오
탐지
인재
믿지
##ats
주술
##주택
##평균
##ㅅㅏ전
##바이벌
오죽
##왔댜
##DX
##피의
##골로
내에서는
##내려
어지간한
##부터가
턴에
시흥
M4
To
##inc
##ㅇㅓ도
동정
망설
##VER
##자연
KTX
황제가
누군가가
남지
만들어졌다
라면
몸으로
그렇기에
터트
##ㅎㅐ도
사사
태워
143
##대포
남자의
감이
##통일
##↘→
능력도
32강
##공학과
인해서
암시
성전
연락을
##해야만
공대
라인을
##ㅇㅓ가
##차고
개발된
브라우
우주의
원자력
반성
##왔지만
인지도
##일으
2ㅊㅏ
이라며
뎌욱
모욕
임기
폴아웃
비정상
저작자표시가
순간에
##ye
바이러스
단어가
##능이
대회를
바나
2단계
##진댜
세상의
##66
아이들
잃어버린
바닷
이방
루크
정도만
없다며
밝허
하머
민간인
이강철
맞물
대해선
한계를
2천
힘은
##인댜
세우고
추세
svg
싱가포르
세리에
불안한
129
##기다
쳐들어
캡슐
##코프
밝ㅎㅕ
##수용
바텀
무료로
워프
없어진
FA컵
응급
여러번
##했으냐
##글라
뜬다
완화
##도어
김영삼
##ㅇㅓ의
시리즈는
##off
하겠습니다
BB
##하우스
##우스를
사직
스타워즈
##취를
있을지
비ㅎㅐ
신정
않던
달성했다
아일
피오
출신인
##ㅎㅏ였
유미
7개
2챠
제ㄷㅐ로
4의
피닉스
그리하여
##목에
##나면
GD
##ㅇㅣ었던
주변을
뵤스
##tm
어렵게
저렴한
##가인
ㄷㅓ욱
##간은
포함하여
##아지
않자
알렉산드
부드러
해셔
##금의
벌어지는
점멸
한나라당
설탕
해병대
##패턴
진출을
시스템의
버틸
숫자가
제니
##풀이
##기에도
##위치
사용자와
어쩌면
레코
딸이
##등에
##왔ㄷㅏ
##채로
##올라
##불을
지햐
##니꺄
##모와
##ty
편리
이빨
##했으ㄴㅏ
경기력을
주입
우두
##하겠다
인플
많았던
##퍼가
들어가서
##lus
주무
##킬을
##청년
답게
Amer
근처의
IV
##직원
##ㅁㅔ이션
김원
표창
##재단
##바시
폐선
이ㄹㅏ는
##등으로
김명
벤치
농촌
##헤이
데ㅁㅣ
차원에서
카카오
녹아
##비한
중도
공격의
상당수
##딜이
초중반
어그로를
택시
독자적인
##린다는
아직까지
인정하고
##방법
쪽에서
노르웨이
엑시즈
치고는
무효화
전세
고인
사람드리
##카페
일족
저글
쫓겨
전속
좋겠습니다
프로세
##aster
신천
##러와
밖에서
##OO
##버렸고
기껏
생각에
죽이려
가령
행방
싸움에서
경찰에
체육관
무난하게
두었다
##미술
과시
##가능한
##idd
무색
전투력
##훼손
해변
ㅇㅣ라는
가능하지만
안토니
##레는
그랜
앞세
무언가
마일
ㅈㅔ대로
만루
이때는
쥬의
명칭으로
ㄱㅣ억
싸웠
대가로
몸통
가성
치열한
대시
이온
튕겨
볼드
뛰고
보호막
Grand
병원에
하ㅁㅕ
타운
무대에
##대왕
##vie
##ㅃㅏ
올바른
다닐
##는지를
ㄷㅐ학
담당하고
아스날
되어버렸다
안겨
할로윈
1차전
고체
받았던
##억원
막판
ㅇㅕㄹㅓ
미상
어자
에메
없기에
엉망
2세대
뷰산
##슈타인
##하루
어머니의
못지
아담
Char
추리
##염을
##사우루스
햐는데
##ㅇㅣ터
리볼
방정
이렇다
다이어
소라
광고를
1989
##폴리스
도우
##들리
한꺼번에
진출에
추측이
본관
장로
걸릴
강서
##osQ
도는
격려
##초로
경의
##편집
등장하고
##자였던
샤람들이
오메가
유니버스
영등포
1단계
연결된
대명
5시
1경기
챔프
친구인
테이블
##래를
다이스
아닐까
불평
##스파
ㅇㅕ자
이도
심각하게
9월에
제라
총괄
장편
오렌지
만화를
인디언
아수
##맨은
##샤전
설명할
외계인
Tw
##ement
지극
명은
플래그
Digital
##신청
무녀
비스트
있여서
공중에서
아냐
ㄷㅔ미
##ㄱㅖ를
슈펴
##카드를
통틀어
포드
##성에서
트랩
계획은
##아라
천하
0900
지속시간
수확
쟈신을
##경과
피트
햐며
대전광역시
ㅇㅣ탈
##책임
후ㅇㅔ
두뇌
배차
부분도
이상하게
상대방이
측근
##지던
ㅎㅏ며
아들로
##으라고
새겨
7번
##ㄴㅣ까
전성기
받았으며
밤의
다다
이화
아이러니
ㅈㅏ신을
80년대
플레이할
어그로
여태
캠퍼스
견해
세컨
내일
삼촌
말의
발목을
이쯤
##류로
##ㅅㅓ의
필라
##각형
사임
##ions
수상했다
##군단
본진
AL
요코하마
##요가
앨범의
쿨타임이
Li
아메리칸
높여
제품을
민폐
시킨
특공
덕분ㅇㅔ
드라ㅁㅏ
##렸으나
ㅇㅣ유
호크
##타워
너머
예전에는
경기의
드러내
원인을
신하
공표
RE
공직
##5년에
안철
##츠카
##oot
휴에
일레븐
MO
1960년대
##본이
단검
000원
##위원회의
신조
##ㅅㅣ의
계략
쇼와
이놈
##동에서
오게
키보드
현행
섬광
##곡인
부지
츠키
있다교
모르지만
##ㅇㅓ는
문제도
풍부한
먹었다
모종의
물품
연결하는
하스스톤
혼란을
이벤트로
잘하는
결과에
있댜고
겪고
약물
##아나
컨디션
제11
인피니티
2시간
##형제
3가지
이동하는
8월에
스토ㄹㅣ
전지
ㅂㅣ해
4성
부드
##면과
요격
##오니
제치고
우명
카리스
총장
##49
##기병
오니
##회관
이동속도
여기에서
의미의
초기의
프로토스
이름인
12시
테니스
멕시
##기보다는
하늘의
능가
가나
##바는
역할은
나고야
적들이
프리드리히
사이에서는
트렌
이름만
상술한
야르
##결정
일화
##안과
Cr
구울
##글로
드라먀
EZ
가능성
이후로도
학생들을
조립
##교수
과제
스콧
##업의
오구
줄여서
산악
쓰기도
##ata
내전
드로우
인지도가
도루
연구가
설정은
2가
낳은
평소에는
배터리
##왔다고
3명의
##우스가
##준댜
##100
운명을
그려진
쇠퇴
노릇
아폴
언급되는
환자
##모어
미디
맡았던
##국제공항
불구ㅎㅏ고
##enter
##랑을
##검찰
##신인
3화
약점이
마우스
ㄱㅕ
중심의
강을
공포의
##ㅇㅣ기
##부러
원작에서는
그간
한국을
주재
활동에
똑같다
##준ㄷㅏ
닛폰
망원
혐의
##마도
형상
간지
교대
##rans
벨라
삼는
앞뒤
우연
##뱅크
탱킹
Eng
고개를
##enn
실책
임진왜란
느러
성질
유니콘
웃음을
법인
재즈
상황이었다
##왔으며
길라잡
피카
북극
즐기
발견되었다
입법
##관계가
솔직히
이름이다
##ㅌㅣ브
무자
초고
Ev
편하다
ㄷㅐㅎㅐ
없교
##수산
##국장
교차로
테레
##ley
##ATE
##ㄹㅣ오
##86
드라이버
있어ㅅㅓ
영동
피어
##erm
뱌이
작ㄱㅏ
얼티밋
군단의
당선되었다
여렵
##들까지
##티에
로열
로우
눈으로
현실의
강행
시작해서
##메ㅇㅣ션
##표는
CN
##이ㄹㅏ
ㅎㅏ루
##틀을
강렬한
시스템은
끝을
직무
한해
##쟈갸
##살의
##참모
11월에
기수
##생산
숙청
불타
구체적으로
제도를
승려
##목록
절단
복음
곁에
스탭
5만
##봉을
##민당
작갸
사건사고
3집
잘생
pl
나오지만
나간다
만들었
언급된다
신전
삼성전
##orts
않ㄷㅏ
##ㅈㅏㄱㅏ
위치는
137
편을
띄워
간접적으로
ㅇㅓ렵
하나다
수성
불쾌
민법
##이라고도
글씨
##업으로
##료도
졸업한
알렉스
어려움
시점에서는
동물의
Ap
달콤
넣으면
대법원
프랭크
대니
##티콘
여부
많다는
돕는
쇼트
유지하는
치우
가와
발음이
그만두
##두에
171
##쪽에서
단원
아울러
글래
팬이
능력치는
##ext
코트
공모
구리
그냐
뿌려
대령
벗어난
##ange
##지수
##증으로
돌아다
이르렀다
가져다
만난다
루비
특이하게도
주시기
통행
단점을
3장
비교해
보이기
##말이
##만큼의
카네
공격력은
16년
보ㄴㅐ
시즌에는
##AK
##ㅅㅑ
한손
##이는데
보라색
ㅎㅐ결
강녁한
정답
흡사
Up
##불명의
##스크롤
초래
수술을
완벽히
것입니댜
비판하는
쓰러진
사과를
장제
고아
##원군
##팀인
##는다면
김창
입에
선회
##소스
키요
독보
진행한다
성향의
저서
##했댜는
안드레
못ㅎㅏ고
##포와
호랑이
##하와
좋다는
존재할
반ㄷㅐ
트리거
미쳐
##리캬
##군주
빠르다
트리비아
도대체
작아
가족을
열람
동닙
종전
정권을
슬픈
각자의
팀에서
##ype
직결
아르바
낭비
환생
##공연
찾지
드러난다
활용한
랜덤으로
리부
받으면서
달인
시작하고
결론을
사교
있어셔
1패
ㄱㅏ능한
않댜
멤버가
##리스크
##카라
힘에
##그림
떠났
조선일보
잃어버
##DS
네크로
ㄷㅐ회
공존
시즌1
불릴
맵을
참여했다
스위치
위치한다
##테스트
##운ㄷㅔ
ㅅㅏ람이
위함
##ㅅㅣ오
전투의
영토를
브라질의
날카로운
연출이
##산역
집계
##oph
1932년
표를
에서도
##마크
4로
부재
지을
따위
##미에게
##치킨
활동했다
##어졌다
압권
##거지
스카웃
1이
죽었
7월에
측면에서
5월에
늦은
가루
장학
1주일
제1항
하루카
가오
##베르트
##ㅇㅣㄹㅏ는
넘쳐
섬을
##칭으로
결제
쏘아
Fre
3세트
정준
영웅의
당신을
##출한
후유
그ㄴㅏ
내용이다
에피쇼
무엇인가
##위ㅋㅣ
일제강점
맞추는
성배
나이로
수ㅂㅣ
##파워
사용해서
최소한의
친목
돌아갈
것에서
##바다
맵의
##pha
써도
아포
봐서
함경
##아닌
작가는
##ient
수준은
페어
일어난다
기ㅅㅏ
우니
변한다
2개를
예쁜
어드밴
##행위를
##했ㄷㅏ는
##어블
3주
돋보
장치를
레온
극우
주황
바랐다
정도에
실패하고
버텨
유전자
마지
김도
##리케이션
원활
보스로
보구
##ㅇㅏ의
한대
##ㅅㅣ는
##양은
##리그의
##당초
테일즈
포크
사람이다
있으시면
##모션
인정하는
##팀에
플레이어에게
깔끔하게
기ㅇㅕ
지킬
초ㄱㅣ
캐릭터들이
Girl
##ward
바꾸고
향하는
의원은
소비에트
히토
수인
김희
방식이다
발견된다
조선시대
영화제
나왔을
성장한
나열
혈통
3경기
하루에
유유
추측된다
ㄷㅏ음과
Pol
##피해
##버비
마유
자유를
유치원
화살을
##치고는
사관
르네
##ony
##다며
##96
진동
체중
##란한
했ㅈㅣ만
차량의
철됴
##oss
##말의
##담당
##나도
##양군
값을
여린
무작정
명확한
정리한
뒤인
필사
댜음과
쉽ㄱㅔ
##셔를
타이탄
##전부터
태조
중이던
했습니다
의장
##해셔는
챔ㅍㅣ
##ane
움직임이
플레이스테이션
##러고
ㄷㅐ전
이번에
##집니다
성사
con
박용
##되면ㅅㅓ
##헬름
있ㅇㅓ서
이동을
날씨
실패로
딸인
##UM
에어로
세로
##랑은
##커로
피지컬
3단계
김형
##때문
iOS
안경을
##리에이션
알야
##리스타
리즈
잘못을
면을
맥주
먹여
이외에는
댜양한
점수가
날린다
##미즈
중반에
Che
Mr
서울대
펌프
일으킬
예의
오프라인
블럭
223
##제이
사전에
##학기
충격과
퇴역
충북
##SS
ㄷㅏ양한
의견에
싸우고
모자라
피스
주인이
##atch
냐온다
##되면셔
이어진다
##베리아
벼스
휴스턴
1933년
레슬링
인물을
##저도
관계없이
편이댜
##독립
겸임
Mon
1918년
136
##ㄹㅏㅇㅣ
안드
##샷을
넣었다
본체
바라는
시뮬레이션
고스
미소녀
##슬을
제재
상대로는
##운영
할아버지
서방
6월에
보ㄱㅣ
준ㅂㅣ
엔터
한미
이룬다
##실장
3권
대다수의
임팩
연습을
제16
##일지도
차지한
쓰리
인챈
욕설
##들한테
데스티
필드에
##ㅇㅣㅈㅣ
부끄러
로스앤젤레스
방사능
##스트림
포터
##진화
정조
내지는
교복
왕을
명장
의도적으로
세계적으로
##투아
##워크
재벌
본래는
트랜스포머
여자가
빠지는
뛰는
UC
관련한
입성
##학은
##산과
느끼게
평소에
제14
오류가
동력
Inf
섞인
##입구
것임을
신은
의혹을
연관이
##공장
##불가
##주시기
보스가
4기
후보에
아이들을
이타
부분이다
떠돌
un
비치
최전
놀이
KB
말씀드
GN
무엇보다도
##준을
주에
토마스
##air
ㄴㅏ온다
TOP
사무라이
거뒀
org
갈등이
Night
Sum
크기의
##죠건
박재
사실이다
이ㄸㅐ
업그레이드를
제국이
ㅇㅖ정
일으켰다
대규
심지여
김정은
복선
##iet
부담이
어나
부흥
12년
만렙
여긴
자작
##ㅇㅏ서
##오르는
메세
##잡을
##con
##ㄷㅐ에
하겠
##미트
마카
말해서
##ㅇㅣㄹㅏ고
짝사랑
인정하지
##오던
떨어질
##ster
노선으로
올ㄹㅣ
##심과
규제
돌리는
국기
마이크로소프트
태극
17년
김성근
것들
##즈에서
3호
##축을
거느
갸능한
대한민국에서
##반으로
승률
오히러
찾아와
지나친
##아머
여론이
노래가
Ass
3위를
빈틈
프레스
굉장ㅎㅣ
소원을
것이므로
정규시즌
나온댜
1931년
나라가
소설가
정사
##됐고
##절이
발칸
##ㄷㅐ는
##GA
날에
강하고
상태다
A3
##oup
ㅂㅓ스
방어력을
Pe
유닛은
샌프란시스코
1월에
##비아의
후궁
부처
사람들과
중국인
늘여
샤용자
죽음에
관점
Hy
아가씨
거리에
뛰어들
1910년
졸업하고
up
뿐더러
##래시
우세
있다며
열차가
나온ㄷㅏ
##사령관
##했어요
진단
##히며
순정
##브가
고대의
펭귄
전투는
##제르
프로그램의
달러를
기지를
##이여
##캠퍼스
##렀고
사투
터진
목사
어ㄹㅕ
산화
EA
정유
신나게
쓰일
모닝
##요원
##ations
##로지
담겨
존스
마찬ㄱㅏ
##오버
시네마
몬테
##타에
##꾸로
##분해
스텔스
##료서
노는
콘셉
스미스
1987
그갸
##치오
크료
개가
RO
투기
ㅇㅏ주
남아있다
##ㅏㅏㅏㅏㅏㅏㅏㅏㅏㅏㅏㅏㅏㅏㅏㅏㅏㅏㅏㅏㅏㅏㅏㅏㅏㅏㅏㅏㅏㅏㅏㅏ
##되머
not
##화에셔
배급
강탈
얘기가
철회
냉각
막혀
트릴
양식
정재
##대륙
회계
아마추어
검툐
ㄴㅏ무
케리
기쁨
지대
불렸다
25px
손해를
##이후
동생인
음료
오해를
흉내
작품에서
맞았다
이세계
##요소
##백의
있듯
Ac
간파
지선
엔지
##딩을
먹지
연구에
일꾼
말하자
##해방
고가
BM
Time
천년
프로레슬링
FPS
수중
쟈유
입장이
제너
포현
King
왕비
##샤에
기관단
포병
ㅇㅏ래
##르노
전생
뒷받침
구제
이블
역할로
깃털
전력이
블라디
##ral
다음의
##프닝
특별출연
가챠
일체
##격인
우월
일일이
대쉬
꿰뚫
지루
혼동
슬슬
진상
##료드
받았지만
구석
국가를
##찬을
24시간
##ott
까는
장사
종류가
싸이
1934년
군용
반쯤
의심을
##측은
##카스
1924년
그ㄱㅏ
분데스
##시켰고
치안
##빈의
불편한
##플러스
후쿠시마
##자원
아니댜
아픈
위탁
지정된
부작
과언이
샤오
지시를
기각
##쟈와
##고생
타이밍에
정형
지내는
##방위
##검의
흔적
오늘의
말레이시아
놓는
어전히
어느날
공중에
상태이
##했음을
##살인
Ret
어워드
##85
성벽
킹덤
갖다
위협을
##수수
워커
교회의
드론
ph
초록색
주저
##되ㅁㅕ
일본과
ㅈㅔ2
갈리는
후반기
문제점이
순찰
##효가
##일기
번갈
크기는
나섰
중추
##테의
피해량
수준을
##파괴
모양을
오ㅎㅣ려
보낸다
ㅍㅐ턴
신자
##십자
거라는
팬들을
곳의
나왔고
142
GTA
강습
##치도
동ㅅㅣ에
다룰
선거에
무엇이
합친
무언가를
번씩
스쿠
쳐리
움직이지
##ㄹㅣ와
유용하다
요히려
표기를
아먀
알려주
패밀리
츠쿠
신경쓰지
##hwong
뽑기
노골
##귀를
리타이어
오바
ㅇㅣ렇게
유신
이렇ㄱㅔ
동시ㅇㅔ
색상
오퍼
##희와
전도
출신이다
자아
생각했다
Sec
추기
목욕
정하는
야니다
##난을
곳도
##곡동
이창
##my
##eng
##거의
3턴
##목으로
유머
##사장
So
길다
잡았다
분배
##사나
타이밍을
도트
터보
##슨과
비추
모형
극초
분쇄
##팀으로
선수들은
저술
##ield
입는다
뜻의
버스를
오히ㄹㅕ
창고
##지됴
휘하
레이디
오신
공동체
대량으로
##좋게
유저들
##이ㅈㅣ
##eb
출구
##이ㅈㅏ
가설
왕족
히라
소설을
미칠
인도의
##매가
패스를
숭배
##리라는
모던
##가야
간행
후미
적색
사이로
##스ㄹㅓ
주파
수업을
조합이
것이니
대사는
일본으로
지나가는
국방부
적용된
##냐면
묘양
문법
강수
야기
##EX
비단
카게
##혁이
해결할
##조ㅊㅏ
항목에
친정
##쥬를
이전까지
나타났
불안정
##셔야
##당으로
13년
수소
우루과
점심
협의
2면
민쥬
##2000
일원으로
코노
cont
오만
##less
##르면서
남해
##그라운드
넘ㄱㅕ주기
##황을
##FL
##페이즈
게임분류
##istory
고조
떨어졌다
스태프
마물
올라오는
##있어서
관ㅎㅐ
##링의
슬퍼
가도
역하를
말고도
들어ㄱㅏ
랴교
말ㅇㅣ
방금
ㅇㅏ르
민영
##파인
##다르
쟈쥬
파츠
##토록
##이에게
탄탄
비용을
안될
모델을
신상
4층
##연방
정당한
##인데다가
출전한
나비
내며
##가ㅈㅣ
되게
Wii
알리는
Ykhwong
본다면
일컫는
밀집
버전을
문제ㄱㅏ
그도
태여
##엘이
비비
일반적
##지휘
관련하여
히료
염색
넘겨쥬기
경질
아니라서
##전인
두꺼
발표되었다
##해쥬
##한ㄷㅏ고
한국이
무궁화
프로젝트를
패스트
호감을
뽑은
대표로
의문이
##atic
1928년
초당
비밀을
that
##맨과
재미를
ㅇㅣ다
##공과
개발을
발현
시어
학자
로마의
주인공에게
음향
##산군
그림이
##대부
드립을
맞춤
사육
대학의
14년
엔진이
돌아간다
머무
4분
호러
밥을
총선거
##ㅊㅣ고
로ㅁㅏ
배워
차원의
순서대로
무단
0이
##프트를
밀접
정우
##루트
##입을
자유한국당
##95
3명이
찾아서
이ㄷㅏ
성균관
트와
4세
최순실
리바
개인적으로
유ㄴㅣ
##몬을
정이
햐였다
bl
받았댜
호출
##들었다
##네와
지중
##노이
연합군
노동자
9년
Will
변이
실제로도
##블릿
##che
주연으로
위력은
##렌의
##나가와
사악한
##ㅌㅏ를
넘거주기
##천이
향한다
시킬
과일
통하는
ㅎㅣ로
##단에서
스타일의
오디오
도쿠가와
이라고도
레이블
걸맞게
피드
oper
죽자
문ㅈㅔ가
Don
##문에서
정동
##겠어
중오한
절대적인
붙이는
가꺄
피니
특허
##치료
그래ㅅㅓ
크지
##ㅆㅏ
싱어
받았ㄷㅏ
##크로스
133
5층
저렇게
언급을
보루
들어갸
보였고
악기
키우는
대중교통
##차원
퇴치
능력에
균형
##초가
받았다고
심야
넘겨주ㄱㅣ
명나라
꿈의
##햐기를
##슨을
수비수
GR
천체
유탄
역에서
냉정
방화
##꺄지는
무슬림
평화를
ㄱㅏ는
ㅎㅏ였다
칠레
오리온
사랑에
##aker
닮았다
##냐가
스릴
첫날
콤보를
공익
붙었다
엄밀히
페어리
##무부
##iro
프로야구
건물은
이쿠
어떻ㄱㅔ
미코
짙은
100년
빅뱅
최상급
일산
내용과
##44
은퇴를
##바야시
맞출
달라진다
가ㅈㅣ
그릴
바그
##보라
페르소나
저의
##3의
클러
##대결
경찰의
##놀이
##ㅈㅏ와
건물의
방어구
##MosQ
브레이브
자책
##ana
CEO
요른
크리스토
##ㄹㅣ로
묘하게
##안한
저주를
수비를
세금
유지할
분들이
##하는ㄷㅔ
만들지
현실을
짧고
거짓말을
빨강
상시
녹화
EZ2
##놓았다
대왕
밝혀진다
레스토
##클릭
말고는
호날
큐어
자발
1천
버릴
같고
공격과
안돼
연수
RedMosQ
##종과
출제
wik
에스파
통하지
찔러
##나ㄹㅏ
하는지
##m의
실로
사진은
##미스
동일본
악용
인원이
Met
원을
제후
후지와
##하고도
소유자
포지션을
##지부
까다로운
축적
옵션을
ㅅㅣ청
나인
역사는
부모님
면접
##그는
더불어민주당
차ㅈㅣ
모친
이관
ㅇㅓ떻게
크ㄹㅣ
##나랴
군대가
진지하게
팝픈
별을
하사
맹세
##로드인쇄용
떨어지고
근원
반환
아군을
친구를
##쟈들이
플러스
왕실
승리한
그ㄹㅐ서
퀴즈
토미
동뇨
나루토
목이
해독
ㅊㅏ지
걸리면
유망주
시크릿
로리
진행이
경험치를
##새를
그들에게
남자는
효과도
내정
##공신
않았다면
세력의
미남
2이닝
크라운
가ㄲㅏ
아니게
보여줄
생명체
갸지
주식회사
##ㅅㅣ켜
##탸를
Sl
소속사
뮤엇
이쪽도
제휴
##무지
##프로그램
챔ㅍㅣ언
이호
##머지
임팩트
지오
자격을
보르
입었다
대신해
시선을
풀린
힘들고
수ㄱㅏ
##사냥
물고기
불분
##있다고
RED
스네
##만으로는
돌을
플레이여
바쿠
비참
판매하는
뮤지션
없었다고
1위로
찾은
경찰은
패키지
클리셰
##하기에는
레인보우
##랑의
수상자
맞추어
강화된
초기화
시즌의
중국과
경제학
222
지내고
##궁의
위를
진출한
프로덕션
##스컵
문제점을
완성된
##ㅇㅣ크
순양함
대한항공
##움의
견디
##표시
남쪽으로
분야의
Can
서해
모으는
칭호
마스코
몸의
##다보면
##ited
하였댜
##ube
홍성
외면
박경
사나
소속되어
##질과
1935년
테일러
펼쳤다
##만도
의문의
차남
##순이
##ㅅㅓ도
작품인
유메
##프레임
제시한
날린
박아
시를
##노리
실험은
범인
확인한
진행했다
역할이
정부에
엄격한
NP
ㅍㅣ해
울산광역시
하였ㄷㅏ
##배치
Ang
옮긴
독립을
##갔지만
비즈
진지한
3라운드
북구
##어료
세일러
##왕조
임의의
##이었기에
BGA
상용
그려져
석방
플라스틱
냐는
이사장
##IE
바랴
어렵고
헬리콥
ㅂㅣ롯
TBS
고든
##바위
불ㄱㅏ능
반갑
심히
신비한
저명성
제프
SL
판다
훈훈
##립스
재수
##혼을
상임
##거는
강철의
몹시
과학기술
보ㄷㅏ
사정이
짧아
##ori
참고료
화면에
##코에게
##예요
업적을
##플라이
협조
##XX
남발
철갑
##레이트
나기
갸는
##저래
칼럼
제12
##ㅅㅏ와
영역을
1984
진행한
아자
흥미를
##대대
친선
광장
##락으로
이용하면
냉동
불갸능
깨고
담임
신주
##레어
실상은
있는게
스스로의
아니더라도
##에르
버러
##따라
늘ㅇㅓ
구한
찾으러
시오
요즘은
다짐
윈도
##이치로
갑옷을
미하
원곡
##표로
야니랴
아구
ㅇㅓ린
##리아와
광물
잡ㅇㅏ
중심이
모드가
옆으로
이카
##ㄹㅣ카
동참
착공
어디에
다시는
수평
냐요
워터
ㅇㅣㅁㅣ
감독과
행성의
##이트가
##백만
음악가
230
6개의
구장
서적
아그
이끌었다
바ㄹㅏ
그곳에
직전까지
독이
에레
개수
##창의
##번ㅉㅐ
메시지를
롤링
진출했다
미식
천문학
패전
오른팔
애틀
다투
별이
무시할
거기다가
##그러
진행되고
피겨
뒤에도
절차
잠을
오딘
만들면
의거
Order
서료
타치
신곡
지켜보
미사일을
##목은
법조
##청은
##하십시오
잃게
햐이
##선수권
뿐이지
응시
##ㅍㅖ
베니
스기
##십니까
소원
##당에서
잘만
중국은
백과ㅅㅏ전
##냐게
면서
##그와
없어도
인근에
측이
T1
정치가
##주민
취한
##ㅈㅣ에
아마존
##반은
##ara
유스
##갸를
인상적인
##저는
##있기
오브젝트
##구니
중위
한국전쟁
문신
##학교를
캐롤
##서울
박찬
450
렌즈
##했어
##파닭
##갸지로
##백화점
맡는다
##78
5의
do
열린다
날개를
마력을
##때도
##ㄴㅣ아
##이ㄹㅏ고
모두에게
쉴드
프라임
##시ㅋㅕ
##계정
1986
맹독
##량ㅇㅣ
##MAX
보살
국내에서
불문
##매니아
2시
오비
캐릭터들의
노래는
스톡
해줄
흑막
대표적
워리어
Blue
ㄴㅏ는
스웨덴의
##제국의
자유로운
##lex
후술할
문셔를
##끄럽
게댜가
싸운다
스바
##차이즈
열쇠를
##나에게
조이
밑으로
따라서는
못하였다
##이랴고
##리라고
이우는
이끈
리믹스
노블
지규
갔다가
##효율
장점을
갸운데
받아야
##업은
ㅈㅏ연
Je
결승전에서
리셋
잡야
장동
아이들이
가면을
1시
적에
만났을
급히
바티
길이는
2초
18년
확인하고
1926년
하수인
주위에
윤리
##살렘
박수
##모양
무비
호르
출ㅊㅓ
흥분
##회와
1929년
괴로워
부합
##네이션
그리스의
보러
안전하게
게다갸
히로시
모션이
##지므로
AB
##백으로
양념파닭
##버스터미널
쥬는
능력치를
TO
돌아간
##맥을
적용되지
참교로
##며니
와중에도
##행에
펼쳤
##집에서
모라
장난을
##자이자
ㅇㅏ버
난무
하는게
게재
게이지가
밀레
##멤버
쇼크
시리즈와
오쿠
분야에서
다ㅇㅣ
학위를
##승으로
플ㄹㅔㅇㅣ
청동
아슬
인질
나란히
##dash
영상은
##S의
##ember
보이게
##해야한다
계획에
다르지만
프로그램이
팀과
묻는다
Mod
알수
조직을
뒤이어
셔로
##칙을
칭호를
높지만
##ouse
설립한
추가하였습니다
간선
##전차단
문ㅅㅓ를
회사가
##창에
괜찮아
출쳐
테크닉
##송이
스크립
##사령부
##ㅎㅐㅇㅑ
묻혀
승자
따뜻한
이승만
##캐슬
##파리
##왕국
##발에
im
##ret
##어에서
본선에
##ㄷㅐ가
##교에
##움에
##스터를
선호하는
아역
양대
벡터
등장한댜
노트북
수록되었다
도배
지각
##아스
발표하였다
이렇듯
ㅇㅣ유로
때문입니다
묻고
장소를
##장ㅇㅣ
채취
교려
Boy
목표는
뵤기
##뿐이다
복장을
명인
##들ㅇㅔ
ㅈㅔ1
것이지만
백과샤전
덱에
##킥을
당연ㅎㅣ
아름다
##령에
분대
##달의
좋은데
##ㅉㅣ
열정
도쿄도
방침
##목의
토키
방송된
연금술
줄리
##차기
신작
먀이
##ㅊㅣ로
체력과
얼라이언
사소한
4연
활약한
불길
##E의
면제
문구
인질로
군림
재산을
김치
##적일
##ㄱㅏ를
찬스를
상대료
프레데
##었기에
레이븐
유벤
동국
본의
적과
##바스
경고를
하이드
김혜
단단한
ㅂㅏ라
뱌라
모습이다
각인
배웠
내에서도
있었습니다
방어를
스틱
##7년에
신한은행
위해셔
##ship
3천
온도
##ㅅㅣ즌
30대
창당
압박을
참으로
길로
채찍
상쇄
운명의
##학이
##ner
리본
필연
##칼리
여배우
##의원
##때로
사키
##루에
오클
동메달
쓰ㄹㅓ
##쪽을
구하는
##ated
mathbb
돌연변이
##수아
청룡
사람에
위험을
##프레스
어스
Of
엘더
위주
##받기
나을
se
순위를
박명
군산
필두로
나며
##드릭
등장한ㄷㅏ
보스전
SCP
스표
아까
합창
한국여
영국과
행보를
버스트
퓨처
##남은
##시픽
##탄과
아처
##방송을
1922년
##비용
인물들이
살펴보면
대상의
부과
조금이라도
흘려
문ㅈㅔ는
기준으료
아레
##ese
되ㅈㅣ
##ㅊㅔ가
선물을
남극
전전
##행으로
##CD
##01
까닭
##ict
##내는데
보자면
개개
카운트
걸면
벌였다
##ough
대체적으로
엘리자베스
상ㄷㅐ로
왕은
걸리
판단을
꼴찌
##하겠지만
##장소
빌헬름
모스비
벌금
##물인
나르
주한
School
##코인
패치를
동탁
시기는
비롯하여
미도
보스의
##가ㅈㅣ로
카피
전해진다
##34
##닐라
##겠죠
##했댜고
깨어나
라면서
##O의
##슬롯
방패를
##인가요
늙은
방공
Play
ㄲㅣ
화면이
바론
##드에게
베이비
##ANI
페미니즘
상한
벨트
ㅇㅑ구
쟈연
##모노
내뱉
증발
영혼의
말한댜
지구에
버블
죠직
작곡한
액체
잔류
##자라고
재료를
화면을
비로소
추출
##ㄱㅣ와
수록되어
##더군요
본래의
돌아올
##분석
##빈이
##ㄷㅣ어
와인
##지점
환경을
벚꽃
##시내
친구들과
DP
##외의
##조판
근처에서
여기저기
##중에는
기호
해를
##슈로
##산리
##니클
교역
##사상
##라됴
1921년
모아서
##대책
##샤인
했다가
장애인
##net
경향신문
감쇼
자손
##효과를
내기
High
포함한다
색을
Champ
박물
발샤
단역
먹기
에버
카탈
서태
화염방
캐나다의
은퇴한
극대화
방심
위험에
보복
획득한
이어졌다
마피아
쓰였다
여자를
과감
방법이다
조선총독
##학에
기반을
디버프
음악이
##G의
##반응
칼라
미아
3시
미성년
내ㄹㅕ
바ㅇㅣ
고유의
토론토
##G를
장을
동호
한편으로는
미들
1레벨
##모니
##글이
에필
선원
##우에게
##해양
넉넉
동아시아
호랑
ㅇㅣ유는
회원수정
디자인은
무작위
유주
##약의
##ㄹㅏ인
활동은
멀쩡한
모험가
카사
cl
시장에
##75
##드려
주체
요래
시점에
때로는
앞을
동안에
결전
머릿
##명인
관리하는
sc
주장한
서독
##마뱀
무서워
터지는
알렉산더
대위
참여하였다
##토르
##어지고
교섭
군사를
오자
세계적인
물ㄹㅣ
컴퍼
##편은
등장하여
태종
오키나와
##것에
##거라고
번식
전쟁은
ㄱㅏ면
내주
무러
하러
현직
이탈리야
근거를
스툐리
질주
코드를
팬들도
##재료
##랴인
##검찰청
일본식
##ㅈㅔ로
말한ㄷㅏ
숙종
줄을
##다드
의뢰를
맺은
마에
지원이
딜이
##over
났다
##탕으로
불러일으
영혼이
가난한
존재하고
##림은
한복
##분과
유닛으로
무엇인지
하류
Cy
파랑
1923년
시됴
그보다
야만
배후
##ㄹㅏ운드
##정상
##서비스
가급
HE
요청에
##서버
##속도를
천지
극심한
##거가
건드리
##림과
수치를
라이트닝
##olution
말려
##주년을
끄는
##술이
##ㄱㅣ고
줄어든
회사를
언급했다
이ㄹㅏ고
항공모함
##절로
Rock
각기
##유치
총합
1980
황뉼
문제다
##밍을
내갸
행운
히사
무너뜨
혼쟈
드랴마
밝히고
4명의
5번째
레닌
월화
등장으로
이후부터
무실점
##사들이
관하여
친다
##쿠가
안무
2D
##ㅈㅣㄱㅏ
띄어
산탄총
시설을
벌어졌다
그랑프리
40분
##방과
시작부터
바르셀로나
쳤다
##랴운드
페르난
미샤
망치
##명ㅇㅣ
소나
저하
##해하는
리카
갸면
것의
엄폐
듀오
기관단총
집안의
일자
주워
식스
후루
팩션
밀어붙
UF
##정원
수행할
2명이
kg
##위원회는
스토리는
공짜
거칠
4000
18세
본사
야규
클라이
겪는
꼽힌다
속성의
회귀
##려던
##뮤를
주장에
마시고
따서
##신도시
만나면
포텐
갸능성이
가마
##ha
##철은
루키
크기를
표현한
경희
상대하는
사찰
옵티
트레이닝
유대인
##AF
김인
##트론
추궁
##랴를
##선다
##메인
경쟁을
드ㄹㅏ마
##판매
##톤의
고베
DM
text
##enc
남구
이데
북한이
업썼다
대뷰분의
떼어
강화를
##신댜면
바닥을
패닉
알을
이동이
뇨선
레스
진ㅉㅏ
개그맨
강희
고를
Fe
아리스
때문인
화합
오ㄹㅐ
##군사
##idas
##스티스
치러
Ta
무도
혼ㅈㅏ
인력
초반의
에볼
알고리즘
합니댜
##티나
##ww
조건은
에이전
묘사된다
##전까지
씨가
ㅇㅣ때
##골드
##컨대
Miss
##포시
에피소드가
중에선
릴리
어마어마한
##니ㅇㅏ
광경을
이랴고
ㄷㅐ부분의
##유와
답을
##져스
##ㅇㅣ로
생각하신다면
2nd
Good
비자
경과
가공의
프료젝트
약하다
악성
재검
##유지
시도를
##ㅅㅣㅇㅏ
변하는
덤벼
끝내기
3단
그리스도
익숙한
촉구
없었댜
BEM
##ㅈㅣ와
##표의
등장했던
온몸
붙어있는
##예를
4화
아ㅇㅖ
are
##집단
은메달
피하는
베리
일렉트로
없었ㄷㅏ
##국민학교
##port
##벌이
넘어갈
##ㅅㅔ를
쿠라
타인의
##룡이
레슬
주력으로
MB
유격수
아버지인
진쨔
정립
본질
격침
이지만
##다와
##토시
쇼설
영감을
공습
평등
배리
북쪽으로
동명이인
##하였교
말리
공통적으로
입히는
있ㄷㅏ면
보호를
조던
헤라
리뉴얼
##야한다
여인
ㄱㅣ준으로
사태를
제뵤
포괄
Bre
##버스를
##구성
##랴됴
성이
수단이
언어를
라이온즈
문과
##의정
쳐서
##호한
전쟁으로
평론가
전광
##신ㄷㅏ면
같아서
##근을
궤적
보여주지
##ㅇㅣ기도
높아서
발ㅅㅏ
못하며
인테
PL
IIDX
생성된
맵이
불리고
옮겼
##때마다
풀고
Music
오인
있댜면
드래곤의
스완
방으로
습격을
##미래
나뭇
학생들
동독
##더ㄹㅏ도
무상
ㅇㅏ예
##광이
##짓을
기자회
좌파
경찰청
우편
순간이동
직속
통보
##으려면
##림으로
아니야
##대구
세워진
##햐였고
사에
탄환
홀리
맞추면
잔인
활용하는
##만ㅇㅔ
예정이
##혜를
드워프
박준
신세계
중급
1900년
효율을
못한다는
##카타
##으면서도
호기
2월에
마요
과학적
입양
##현실
##유산
상자를
영상에서
내리고
##bl
알려드립니다
멤버들은
시작하면서
내릴
달걀
##송을
투표를
저기
드래곤을
필요도
##스나
활약이
##다시피
##바지
사범
##못해
떡밥이
가히
방에서
종교적
수시로
발사하는
##제일
억압
메갈
원흉
얼어
##강이
타르
감염된
##왔다는
심상
담당한다
구성이
유진
에피소드에서
누워
베지
2에
관점에서
장의
##혁의
버서
##파이트
신화의
##이갸
데뷔한
부대의
사치
사면
ㅇㅏ이템
2TV
진행될
##코로
6위
모범
애정
대샤
##이브를
일당
불확
ㅇㅣㅇㅑ
배수
##ㄹㅏ를
미완
이ㅈㅔ
##we
##되었으ㅁㅕ
##헤드
##집의
로서
관해셔는
몰아넣
ME
##십시요
시간과
극단적으로
아쉽게도
니코니코
방울
바람을
돼서
##한정
##뿐인
고래
삼성전자
타우
이곳은
##쟈기
이곳을
##가치
직책
아이템은
Nu
관악
##디스크
ㅅㅣㄹㅣ즈
##ㄷㅓ라도
ㅇㅒ
##되었으머
BEMANI
2세의
##작에
관련해서
##55
##열은
2단
134
제목의
가깝게
##토에게
##급한
사인
##이시
맥도
백두
이유에
차단을
자세를
어머니를
폼이
##캐릭터
Bong
앨범은
위협적인
김천
막지
로컬
15일에
미끼
내뿜
입국
책은
##IK
너도
덱에서
해고
아르메
평균자책
가사를
붉은색
##인만큼
아니냐
선거구
뷰탁
##ㄱㅐ를
Life
##퍼는
없었을
사정을
갖는다
##주의와
Christ
브론
##해ㅅㅓ는
트윈스
##특별시
타입의
부담을
결성된
입체
계층
##되도록
딱딱
카더라
##건과
장원
다리가
부채
츄가함
엉뚱한
자신만의
NO
맡겨
메이저리그
ㄴㅐ려
줄일
##오는데
친구들
International
수만
##칭이
변경된
원래대로
표ㄱㅣ
공격력과
##측이
ISBN
총평
출연하였다
고러
여는
##립니다
잡는다
ㄴㅐ용을
바뀌고
열었다
도라에몽
중일
원천
##운동장
시상식
프롤로그
빙결
##루스의
##na
뵤어
많다고
제국을
##사격
##ㅇㅣ면
늘어났다
대승
용자
##소리가
유저의
##회로
표방
높기
연안
창간
말그
ㅆㅣ
##위원회가
ㄱㅣ여
##세력
해가
7대
di
거꾸로
재빨리
로맨스
##성인
##클로
##크에
##수에게
##괴한
살해당
일하고
암울
조각을
불과하다
##32
##수엘
포켓
설정으로
무식
인연이
등장이
말만
파키스탄
Spec
부평
문제와
##TR
##장도
불리기도
넉백
수정을
그녀와
만나서
더욱이
연말
ㅈㅔ보
추갸함
동조
##시간은
반는
아름답
용기
##적한
간첩
성숙
자부
여디
##버려서
정명
됴망
공개한
205
노선의
구매할
사탕
아이폰
##전함
십자가
##리브
나ㄱㅏ
리베
##이나마
##ㅎㅏㅈㅏ
양을
##해에
자체적으로
ㅇㅣ상의
흔적이
##군에서
국정원
##캐스트
1925년
동창
##순양함
휴대폰
변함
선언했다
번호는
pr
장점은
트레이너
##평화
스케이팅
##아르
김택
##ㅌㅓ를
적립
##rop
##사무소
##두가
운운
판을
##ㄷㅐ표
##A1
못하다
이때부터
호감
##hammer
죽이지
##이프
##렉트
전두환
기록하는
뱌료
설명한
본능
##버스가
##햐쟈
공명
행렬
중간중간
김규
##스터의
##ames
링컨
전자기
심화
##공산
##ㄹㅔ벨
##ㄴㅣ는
퍼펙트
밀양
아ㅇㅣ템
차이나
구도
##맞은
자ㅅㅔ한
균형을
##교와
##결합
LTE
본문
영화에서
##머리를
내놓은
상위항목
패ㅂㅐ
##하늘
##공립
##엘은
operat
상대하기
##져도
장벽
나갸
##야스
뚜껑
중ㅇㅔ
##미션
수준에
End
##루살렘
막판에
##전에서도
지옥의
##유저
숨기고
과학자
ㅁㅏ음
일품
대기업
반역
하치
##계약을
야외
처리할
##아니
##연과
공신
부활한
볼륨
뵤는
스트레스
##란과
##ㅇㅣ었
##스럽다
##부사
묶여
산소
1912년
볼을
FW
ㅂㅓ그를
HP가
##UR
달라진
글리
웨폰
스크롤
휴게
소환할
10여
사라지는
##어버린다
부족으로
시발
보ㅇㅣ는
Cor
파손
연루
이만
용맹
만큼의
가족이
내용도
상황에서도
가ㅈㅕ
벼그를
방과
네덜란드의
##달을
마을버스
가능하다는
벗겨
##나라는
불륜
발톱
복싱
자칫
급제
Af
정면으로
기간을
도전과
리눅
이래저래
1과
모드의
Act
철저하게
##액의
##욱이
##용과
알려준다
조종하는
윈드
도움말을
우려가
Nor
퇴출
장소에
##수이다
뵤이는
현장에
들어가지
고분
분당선M
마른
##연기
##오며
##ute
##ARD
놀랍게도
종뇨
내린다
산성
있어요
형태는
엔지니어
묘르
시기의
신임
보였으나
펼치
##맨더
영화로
##과학기술
보너스를
해아
계속되는
개발이
##니까요
##지료
병살
##때까지
만만치
계곡
##득점을
무시하는
설치한
기업의
쥐고
##텨를
2억
미치지
가격을
폐허
Rec
변동
2015년에
##ㅅㅏ항을
엑셀
일절
아이의
ㅈㅏ세한
프랑스는
##ㅎㅣ는
3성
남성의
##샤항을
방문한
Fire
내면
참고하시
화석
##정도의
남았다
병을
승계
지도를
##IV
표기는
유투
##해주면
시기를
자이언트
요구를
adidas
##ㅂㅓ린
2는
##웨이트
빅토리아
똑똑
재팬
고치
대량의
삭제되었다
디스코
##카게
자신들을
한가지
생기고
소극
공경녁
##P를
##감의
정부를
여기고
##행의
##omb
중원
로저
네놈
만회
금메달을
##갤러
##한ㅌㅔ
LED
대각
현장에서
경계를
원리
작성된
갈릴
힘과
클레이
##복은
역설
갸져
유배
적발
장소로
미녀
증기
##37
감자
소ㅈㅐ
넓게
사용ㅎㅏ는
3세대
##쿠로
Include
##동시
질문ㅇㅣ
ㅂㅣ판
##엔진
조영
영웅을
깊게
##라라
나서는
퍄워
BD
표현은
이형
유해
일부분
운행한다
##메르
안도
진행하고
근본적인
강성
발의
해임
모른다는
찍었다
연세대학교
OF
Pa
같네요
도호쿠
분량
메딕
성은
정문
한겨레
심사위원
##태의
##아에
전작인
19세
##수갸
지지하는
BO
체제를
느낌의
뒤로는
부적절한
지극히
5화
숨은
별도
도깨비
자란
##워진
다가가
식사를
세계가
배터
##티오
##행은
외국어
이라교
##부턴
하나하나
위키피
##ㄴㅏ고
이리저리
안에는
##커와
##6년에
혼다
Live
야뮤
전설적인
##타스
##당시
이문
진군
##받던
##전ㅇㅔ
##ㅅㅣ를
순위가
##움과
미미
써먹을
영어를
남자를
올려주는
##기엔
유우키
##되나
##턴의
이글스
슈비
휩싸
슈됴
창시
하필이면
##ㅋㅏ와
상단에
##공무원
말하지
알렸다
능숙
오늘날의
rev
발동할
##뵤니
행사를
야이돌
##사라
가로막
깃발
프로젝트분류
델타
연달아
존속
##난이
ㅈㅔ한
##해져서
내밀
의아
정해져
하이라
기다려
주장하고
##직이
몸무
골로
되어버린
노르웨
파격
김전
##칸의
구성하는
인터페이스
존슨
파편
ㅍㅏ워
감샤합니다
존재감이
고토
##보컬
##록의
인과
##chor
문화의
##리조
소꿉친구
세가
##분야
레이지
사료
ㅅㅣ도
##락에
##찮게
연막
측에서는
마하
UI
간판
##박사
전통적으로
당의
탄생한
참조ㅎㅐ
MLB
공교
##ㅅㅣ킨
둘러싼
디시인
##후가
비중은
프로젝트의
미묘한
##que
유ㄹㅣ
##포에
넘기는
집회
##삼아
##Gon
operatorn
들어가게
전차를
##주의에
목요일
필라델
지었다
##패의
조합으로
##통의
##물질
##해라
발사한다
ㄱㅏ져
밝혀지지
##방향으로
당분
에인
주머니
##니스탄
촉진
operatorname
봇ㅇㅣ
넘은
##트료
마을에서
##업자
편한
중국이
##홈런을
오리콘
##호에게
매개
학년
##하였을
##키로
너클
손실
변하지
HK
1927년
면적
코멘
범죄를
맞추기
책정
목소리로
누르
혼돈의
##리ㄱㅏ
소실
하후
##번호를
##벼린
중국에
업계
에녀
정진
SSR
설정에
Elect
ㅈㅣ휘
오사
대한제국
양보
NG
놈이
비아
시집
음악의
요늘
##고쿠
##악을
고려대학교
Warhammer
리스크
132
수정ㅎㅏ는
어째서인지
재능이
왕좌
마법으로
이례
##any
##itch
의미에서
가라앉
냐와
뉘앙
뒤통
수료
출시한
##슈록
번이나
승급
임의로
존재하는데
##잡는
바이킹
끈질
동쪽으로
전장에
더부러
Win
신뢰를
##해됴
이븐
##범의
등지에서
따돌
물건이
품은
##타고
야키
##품의
형성된
충주
한발
##eral
츄정
미국을
돈으로
도망가
BongGon
보였
정렬
어려움을
가던
동래
수락
댜운
##융합
ㅈㅣ방
애프
##공고
캐릭터인
수렴
ㄷㅏ운
감사합니댜
반격을
##ㄴㅔ요
사일
회담
정책의
나왔지만
마족
에메랄
131
슈상
금호
등으료
밖ㅇㅔ
위ㅇㅔ
검토ㅎㅐ
위ㅊㅣ한
품질
중에도
최근의
절ㄷㅐ
명확히
뷰활
사이즈
수행하는
기반의
초점을
##하더니
남아프리카
기성
있나
분을
##놓교
##간댜
단어는
참죠해
시기가
Mark
##CE
##임에
당나라
의외의
##plate
문화적
2턴
##함대
이론을
체력은
##놓으면
##나온
연도별
기점
저승
언급하는
타당
##갸와
##갔댜
태생
개발에
사건과
난징
원숭이
##일수록
후뵤
여성을
구조가
아드리
친분이
공세
반항
##물이다
업ㄷㅔ
ㅈㅣ정
##icro
##어택
표켓몬
바꾸어
보였지만
사용햐는
보여주면서
무소속
양상
자유의
##샤로
##나르
뒤덮
10위
댓글을
가의
##값이
야먀
리프
왔을
원전
##훈장
제주도
휴먼
##AA
일행의
송출
다음을
##되니
제국은
##등학고
##장관
하나에
경유는
##프랑
포함된다
편의점
대ㅊㅔ
리버스
부진한
##iale
센티
조현
서민
디아블로
명단에
전념
결국에는
카렌
##자드
김일성
##적으론
중상
선구
싱크
남성이
한숨
뒤틀
쉬는
궁민
이펙트
어ㅁㅓ
어서
표정이
##ㅎㅐ를
군을
럭키
넘긴
결정되었다
하도록
샤용하는
피해량이
들교
하도
##건으로
기간에
아래는
메ㅇㅣ
트로피
##우에
악세
워너
##항년
차이점
##슈트
개발자
유력한
어우
불필요한
들러
인성
##ris
##uzz
##마사
추가된다
##갔ㄷㅏ
코멘트
##노벨
나갔다
모니터
##구스
정벌
##간ㄷㅏ
##기동
루트를
멀티플레이
루마니아
청원
신과
작중에서는
ㅅㅏ용하는
##커녕
##협력
대도
##보ㄴㅣ
태블릿
##임과
멀리서
고려하면
현실적인
받았으나
조력
##eter
하남
성공적인
임상
시대가
깔려
다닌
콤비
##테오
##해버린
##처가
함대를
##별한
녀석이
이들에게
ㅇㅣ라고
하긴
##도니아
서초
외래어
정인
##its
##뵤다는
독일군
##47
점으로
기피
A의
##토리얼
Soc
문장을
##ck
이야기도
##품은
처리하는
ㅇㅣ끌
연혁
백악
루팡
쌓인
##경찰서
전이
당시엔
1일부터
##공동
스토리의
홀딩
##수준
역사의
프랜차이즈
놀러
##BI
스타일을
주가
과잉
결혼식
폐지된
8번
1200
업데이트를
입자
##넌트
부탁한다
굴복
반감
EV
만났다
파스
한스
##전적
ㄴㅏ와
##ㄹㅔ스
죽이면
가브리
기하
들었
뮤탈
여유가
남미
259
공의
아키라
확정된
자기를
##패가
##밥을
##imes
영미
##됴갸
##하기까지
제작진이
고산
ㅈㅏ체
##ㄱㅏ와
회의를
괜찮다
강사
군복
교구
##말고
판결을
디비전
현ㅈㅐ는
역관광
길이가
다른데
##달이
1에서
뿐이었다
##는댜
비슷하지만
착수
30일에
증거를
중심지
##보안
##느냐에
쥬요
대학에
대서
서바이벌
##향이
ㄱㅣ사
##각으로
##잡기
질문에셔
광교
##항이
연출을
참여하는
아이스크
Press
##리츠
했는지
영향력
##유기
주장도
공세를
불상
책의
##yl
내비
1위에
서경
##적이었다
##인이자
##트럼
플레이하는
희대의
##난히
##궁을
협상을
##일지
세미
궁합이
나눌
관동
##이다가
변경ㅅㅏ항을
대부분이다
슈정됨
군대의
레시피
수령
없거나
노릴
차체
규칙을
발견할
부드러운
Dark
루리
과정에
검툐해
수단으로
##통에
UTC
숲의
쿠바
##골이
##1년에
바람이
남편이
차에
서정
set
줄곧
계시
##들어가
확률은
않은데
##ㅅㅓ를
주민들이
##놓을
Heart
보고서
않을까요
영향력이
헌신
##시대에
자비
한중
변경샤항을
제작을
##상태가
##gg
##3년에
##림에
##옥을
1985
감히
11년
##선도
##주에서
##une
사회에
정황상
미시
##몬과
결국엔
##보와
##정부의
App
적들의
겹치는
여파로
##운전
과정은
가저
게스트로
전개가
최성
fl
필요없
말하지만
신호를
변질
공격형
이료
##보댜는
Sot
공민
##격투
노부나가
지됴
타키
적용했습니댜
징병
##ific
플라즈마
출몰
내부에서
춘추
되돌렸습니다
올린다
카이사
만화의
멤버들과
징계
##과정을
전학
개구리
무지개
스노
##ene
특이하게
천상
NEW
분데스리가
##협의회
모방
##술로
나누는
유저는
ㅌㅏ고
기록에
사시를
원망
키르
자고
지미
Des
MR
##39
##ㄱㅖ의
일행에게
멜론
##광을
모으고
후타
##항에
대미지는
##는ㄷㅏ
게임인
OB
영국에서
##8년에
울음
VR
교단
정은
있었는지
필드를
단련
단숨
물러나
2014년에
수험
사용법을
이내에
성에
자이
서울의
규격
무제한
수익을
반영한
즐거운
이름ㅇㅣ
##랜드는
##raph
요규
쏠쏠
이후엔
용어를
##시키면서
##ACK
##머신
다큐멘터리
관리자가
변속
받던
##ars
유년
최장
##플레
##답지
##택에
1st
국산
혜택을
이랴
차지한다
UFC
운행을
마계
일괄
##↙←
기술이다
OK
Sn
공격속도
마징
임관
깨어난
반론
대한민국에서는
만드는데
쟈동
##ㄹㅕ면
왕위를
##비언
급기
이선
계약이
경인
낮지만
사전차단
중2
팀인
봐서는
여주인공
차관
##대인
추구하는
##시켜야
유영
##메다
##시키는데
##ㅍㅣ소드
##레스트
인간으로
##학과를
원작에서
아홉
속을
5세
##버는
빨아
민감
4시
빠뜨
건물에
##브는
##려교
규정을
측에
데스티니
내륙
##주시면
원문
돌아오는
오더
정체불명의
살기
성지
씨는
부대가
하우
필요하다고
가족의
왕으로
지날
할리우
호는
##욱의
퓨전
##변속
실정
사랑방
장갑을
세컨드
단백질
베어스
피치
ㄹㅏ인
크립
소환하는
대행
##2를
빼앗아
사내
인형을
나에게
음악은
ㅅㅏ실을
회고
복용
독일은
스투
장비가
##성장
##애나
운동에
로도
분야에
대안
테리
시장을
아직은
인구의
예고편
마코토
앨범에
매니아
무기에
끝장
상대식
키보
##LS
축구를
포식
한지
First
UP
고령
불완
넣는다
##인들에게
##38
연습장에서
후보를
동대문
스ㅍㅣ
런닝
중상을
상황ㅇㅣ
하였는데
##체국
##만명
초능력
##마리를
입힌다
##교육청
맛있는
Off
##플을
교수가
##먀의
##빵을
임의
여머니
##동원
##니ㄲㅏ
##CN
도시에
스모
오즈
군사적
기다리는
홈페이
우드
특징으로
구죠
##근의
##캬와
노선이다
3승
##XT
인텨넷
마모
아리아
갔을
ㅇㅣ름이
아쿠아
단정
하려는
뿐입니다
AG
경유에는
소ㄴㅕ
참고하시면
엔트리
ㄱㅣ능
수호자
한국어로
퍼부
안중
표기가
Leed
이벤트에서
젤리
건다
컸다
마세요
AF
암살자
포인트가
오의
제한을
안테
청산
##결에
애플리케이션
떠나는
국내에서는
50년
##러로
샤실을
원격
21세기
목쇼
생산하는
주의하자
세상에서
서남
전교
알제
올리면
스트라이커
Battle
개인이
행적을
다행히도
위스
경우ㅇㅔ는
정무
표현하는
무장을
목동
6화
수에
귀가
##라니
##링으로
마가
불가사의
터라
##일때
견인
##기면
##통제
복면
가득한
에필로그
##름의
20일에
ㄱㅐ념
오른다
Sun
주기도
##해군
##틱스
Pv
교수는
증후
실루
걷어
할당
ㅇㅣ적
서북
틀은
밑의
흑역
##사이어
2세는
##ience
지크
함재
촬영을
##리스와
관절
결정했다
데뷔를
레벨업
헌법재판
최선을
어를
업데이트가
3에서
오가
Lee
주도권을
때리는
##ush
액세
오정
착지
백색
목록은
나뮤
##확인
집결
##선언
해결되지
4호
빠지게
발리
##노프
##한은
최소화
Not
1917년
펑크
CCTV
언제든지
인ㅌㅓ넷
시설이
현실적으로
금성
자켓
아아
Ind
귀하께서
##니트
차로
##전생
월등
자격이
역에
뵤내
담당한
시부
사정거리
국내에
##ㅂㅣ스
펼친
떠날
ㅊㅕ
일종이다
설명한다
실무
초필살
관습
독립운동가
자르
##겠지요
##도사
Inst
강대
진흥
코요
##ㅅㅣ면
캠퍼
##잖아요
예상된다
##커니즘
후예
대통령을
1개월
##ring
##들이는
조국
##타케
2016년에
꽃을
무명
생각해서
브루스
hy
군데
농장
아ㅁㅏ
군대는
한국사
성질을
클리여
1면
랴인
캐릭터이다
왕국을
엔트
뛰어나다
Top
맺었다
당원
밀러
제지
행위가
청량
여겨진다
단선
패자
오아
##ision
##갔을
유포
경력을
지어진
##너지
표정으로
##ㄴㅏ라
점거
얇은
우쥬
##르스
ab
엇갈
달래
돌이
버릇
쌓은
앞장
##범을
나타낸다
루스
형이
##ij
참여할
##테이너
사수
하ㅇㅣ
##박쥐
생각하며
길라잡이나
보스는
이씨
##ㅈㅔ가
때때로
보고는
공동으로
문화가
시위를
조인
몰아붙
##lut
맹활약
상관이
볼텍스
공격한
어렵다는
다툼
아랑
2012년에
하는ㄷㅔ
있으ㄴㅣ
공포를
쵸기
##타우
무실점으로
##외로
역할도
출근
한ㄷㅏ는
몇년
##팀과
##온과
동지
Power
제갸
3개를
5차
드레스
##세인
포함하고
연희
전으로
카우
아줌
힘들게
##해선
지상파
gr
굴욕
메이플스토리
안그
사용하게
##ㄹㅔ이드
엘ㄹㅣ
진심
신촌
##2가
모드에서
안좋은
보증
정구
열등
##효는
다름없
둘이서
온건
종뉴
직업을
##화도
양아
무기와
비춰
ㄱㅏ끔
##났ㄷㅏ
##교육을
Talk
대답을
스탈린
삼은
Project
한의
no
장군의
포토
시간동안
National
크로노
Light
바란다
증가하는
행위에
그쳤다
대상은
추가되어
ㅎㅐ서
발족
##ㅎㅏㅈㅣ만
##녀로
분노의
스켈
정안
탄소
RC
간이
##그비
##uch
##핑을
아드
상위호환
이계
후로
##ㅅㅏㄱㅏ
돌아온다
싱어송
2위로
한댜는
##엔터테인먼트
##높은
2013년에
변장
이스트
##항은
손톱
##P의
##스럽고
기대할
la
요인
##ke
밴드의
##평군
활동하였다
##붙은
##UT
음주
##평양
##월의
이ㅎㅐ
알코
야버
높으며
정신나간
해태
최쇼
좋아하고
##으로의
멀어
많았고
조수
ㅅㅏ람은
##비히
Mer
들으면
일본국
토착
선형
아쥬
##9년에
상황이라
##라시
시작되는
흠좀
자리가
토시
##파티
무리한
붙어서
피신
좌표
목에
미세
서지
중점을
##냐이
중국을
적재
살라
10000
Leg
건데
해ㅅㅓ
장기간
분쟁이
Em
공허의
광양
모나
키즈
##ㅊㅔ는
소노
##폭력
도코
송도
라우
북방
샤람은
갸끔
토론란
위키프로젝트
날ㅇㅏ
윈터
사랑이
최종보
메이커
##능력은
뷰티
##산성
집이
환원
요구한다
덕후
##황제
##ari
분뇨
##되ㄱㅣ
Euro
##부족
##줘도
##리요
지ㅎㅏ
콜롬비아
맵에
기준은
임원
##남됴
괄련된
##영민
받았는데
거리는
##웠고
##ㅊㅔ의
구입할
##ates
넓고
달빛
##기계
줄기
동안의
여기까지
대대적인
튀어
sub
조커
보통의
원장
##기며
라틴어
설마
##바와
무한도전
벌ㅇㅓ
헬기
최후를
잃었다
패왕
1주
##ㄱㅏ의
증거가
##쿠리
사람들ㅇㅣ
##ㄱㅔ임
쌍둥
갑작스럽게
##곳에
돌릴
점프를
##으시
전에서
비타
##경비
mdash
경신
추첨
상승한다
재활용
아사달
ㅇㅣ름은
사리
시작했댜
다듬
##닷컴
페이크
존재는
##하로
없도록
불안정한
클립
##주기도
입힌
지역과
제공하고
애니메이션의
##광역ㅅㅣ
처한
선보인
##척을
편집하신
씨의
예루살렘
형식을
티저
##가락을
양주
전술을
테러리스트
Let
안쪽
1세의
시장에서
ㅎㅏ는데
레귤
##호도
##릅니다
말이야
et
##ely
정의를
관중수
식별
언론에
존재했던
거북이
##ican
바리
ㅂㅏ이
빚을
##연수
ㅂㅣ밀
##티넘
우사
교과서
MK
ㅁㅏㅈㅣ막
장군이
향토
Stud
시드니
거행
221
##텔레콤
양키
햐기
##증의
정부와
영국은
도미니
낮추
미루어
MD
안된
형법
##캬이
##ger
##ody
믿음
##나시
순조
이전에도
다뤄
##인해
주위의
미소를
##팅이
오죽하면
##레타
교향곡
사르
##고자
##다니며
환경에
##vs
##해버렸다
한국방송
직통
가창
쳐도
2010년에
##기관의
보여쥬
그림의
미친듯이
지팡이
고기를
##쇼가
천둥
##rip
등장하였다
화신
##판에선
인물들
2017년에
생존자
죽이기
늘어난다
ㅅㅏ람들이
내로
여자친구
Xã
e스포츠
이루ㅇㅓ
심장을
style
##ㅈㅣ지
2명의
한정판
발이
경찰서
##시즘
좋ㅈㅣ
정경
일격을
진한
ㅇㅔ피
낮게
03월
경우됴
중년
박격
유정
주유
외치는
외모를
진도
##됴에
제약이
개념은
도와주는
몸은
패미
만들었고
치뤄
그닥
##이다보니
국가는
뱅가드
수목
펜싱
##사진
25일에
##갸의
##외선
스탯이
건물로
##버섯
어제
##해지기
##색과
##겨를
##TM
쓰러져
설상가
당첨
분류를
제작자
생각으로
##삼국
처분
갇힌
##묘를
##마에게
##티스트
저널
##돼서
문자를
무공
##냐라
끝나지
왔던
배치되어
아니므로
지름
##ga
생명력
##스타일
코로나
##료와
##배로
##ally
타이틀곡
갸지교
댜이
정치인이다
끌어들
제작사
구분이
your
안하고
남원
초반부
틀림
##배의
학교가
치하
집정
이과
지역구
경유도
일어나지
##본의
지식이
신들의
트ㄹㅣ
슈는
유죄
하ㅇㅕ
엔진은
##적이라
재료로
마시는
상금
ㅈㅣ난
찌르
this
선도
##인수
담배를
##역까지
##투자
첨단
Out
세탁
##돈을
##캠프
이반
스크래
##증에
##행동
##쇼에
라인전
##충이
##어버리고
매운
영상의
스퀘
영조
##쿠니
위치로
기준으로는
다룬다
대검
군샤
##보그
분은
내려가
입힐
스튜어
물량
콜드
정치적인
일찍이
부어
sy
##res
성적으로
농락
##쉬의
한탄
다름없는
시작했으며
소소한
해결하기
PVP
스리
##산에서
군ㅅㅏ
##블레이드
친구로
컨셉을
##시지
##댄다
ㄱㅏㅈㅣ고
우리를
우로
겐지
##먹기
성형
ㅁㅔ이
타이거즈
FR
##att
못지않
미군의
사상을
##ㄴㅏ가
프리즘
기체의
뜨고
아프가
맞지만
##말료
##장치를
말라는
능력의
법한
##du
Sotiale
바실
영지
다이스케
작전에
##비어
버프가
미인
##함으로서
눈빛
자위
기타리스트
오늘은
비어
시즌3
좋았다
브란
따른다
커뮤니
재난
##ㅎㅏ거나
시장이
부리
ㅃㅏ른
##모에
##iver
변명
후안
려시아
위임
##차와
##거든요
##카르
멜로디
##렛을
##점인
생년
활용해
등지
Jap
키노
##하임
System
유라
말까지
펠리
콘스탄티노
Dav
##2년에
러시
임페
##0년에
주민들의
자원이
one
카에
화요일
케이크
탁월한
한국철도
야들
외로
전반에
DB
맨손
##노우에
수요일
일진
##구멍
조르
스와
비평
밝고
놓았다
게임에서는
미르
캐릭터들
ㄸㅏ로
##노기
##주의는
스킵
티아
파티를
##스타의
돌아갔다
귀중한
2가지
##뷰는
발광
있나요
##개는
##메의
##션의
이루여
취급하는
복귀한
대패
러셀
음양
##사자
ㅈㅣ도
인접한
한국ㅇㅓ
정됴의
레베
박혀
##ello
일방적인
노숙
##기스
대진
204
포함하는
도미
##하거ㄴㅏ
Lit
스킬인
면에서는
상황에셔
뛰어넘는
##됐던
대고
범위는
##게리온
##플렉스
##하겨나
지나가
발자
##2명
##언정
ㅂㅏ꾸
ㅁㅔ인
ㄷㅏ르
KBS1
화상
여겼
책략
##ㅈㅔ의
ㅇㅖ를
주제를
##번대
##올로
명목으로
공휴
직후에
당연하지만
데는
CO
의식이
##4년에
안전을
마천
김은
두근
맺어
##안타를
개원
부스트
아래에서
인정받
변신한
명사
##IST
데뷔했다
218
##ze
ㅈㅔ외한
##선지
까마귀
팔꿈
20만
철저한
묘드
장안
표출
게이지를
인간형
가상의
3종
무장한
연방의
##IO
뺘른
##복의
투수로
상성이
##충전
컨텐츠를
아쉽게
분들
사망하고
미스터리
탐구
나미
학대
허리케
탄을
##amb
패키
학력
##햐거나
너프를
복수의
뿐인
창원시
경매
연ㄱㅣ
김제
시스
송병
능녁을
밝히는
분자
성추
캐서
광화
May
윈스턴
##크루
박병
토탈
싸움에
호세
에코
왕세
쳐다
취하고
해협
성대
구성을
##지ㅈㅣ
역임했다
촛불
리그에
750
##레드
어나더
돕기
출전하여
5로
책임이
느낌으로
만년
##장에게
##링과
이루어지지
관념
치루
Big
1실점
##마침
세츠
붙는다
구멍이
##파라
프로그램에
anchor
편견
캐릭터에
패배하고
규정에
##하거냐
벙커
##넣는
##ㄷㅐ학
ㅂㅐ틀
건재
지점에
자진
##보살
교리
치열
기간동안
##보인다
컨셉으로
LOVE
비즈니스
##상인
지위
##카운
굴욕을
와타나
##체계
마지막에는
전산
결혼한
어시스트
##려다
학창
##인사
아내가
북유럽
##무와
바디
잔혹
못했을
쿠루
사이토
달성한
무방하다
학급
##학번
With
인식을
gif
ㅈㅔ국
미셸
19년
개화
##잘한
KS
전한
##현대
게임과
시아
들어있는
대학을
참가했다
##래로
##하ㄱㅓ나
Rem
점ㅇㅣ
바다에
키미
##하리
레바
유세
요미우리
구마
마디
판매량
만의
홀드
적절하게
장르의
이쪽이
시비
캡콤
##이트는
BPM
말기
희귀한
목록을
우주선
리츠
##쟁을
진흙
##고에서
벽돌
마기
TW
상호작용
##탑을
##시나
스펙트럼
##ㅅㅣ로
##31
제20대
##ws
레스토랑
도널드
아부
셋이
조지아
##슈와
놓아
전ㅊㅏ
선수분류
심하다
표명
##디자인
싶어서
##린다고
##7명
개연
##것과
##있으면
##보통
상사
정교회
이미지는
것들은
##갑을
DX
주먹을
올라갔다
##황이
사항을
쌓여
##랴가
남작
##AB
정선
##냐를
##남의
상기한
Cal
쇼핑몰
얼굴로
리모델
이이
EM
am
##400
왕과
##랜드를
이루어진다
리우
##YP
ONE
금발
치며
불ㄹㅓ
골목
##예정
가즈
알프레
어휘
사용하던
동요
언어로
##찬이
루프
여자친
##관인
1981
동계올림픽
##ㅂㅣ를
단숨에
바뀔
ㅈㅣ나
오피
형님
하어
환경에서
하드웨어
##98
딸의
##반도
##발사
##중계
ㅂㅏ뀜
댜르게
##5명
회장이
횡단
##치교
##마나
##르트문
최약
카카
Your
우미
들어서는
진공
##시도
것입ㄴㅣ다
액셀
실루엣
전반기
배차간
장면도
전챠
새로이
시ㄹㅣ
##동네
가면서
모사
Fr
작별
첨가
##남도의
##정됴
급진
띄게
못했댜
받았을
배송
##폭이
능동
높다는
대대로
모르겠습니다
정니
##민주연합
##원에게
존재한댜
참고ㅎㅏ
드로
##하자고
##ative
걸맞는
ㅈㅏ랑
각오
거주하는
동영상을
##한게
클ㄹㅐ
러시야
##충을
##부상
오늘도
노태
15세
진해
##마력
생겨난
ㅊㅓ음으로
##쵸에
넘어간
강판
이해를
선천
뚜렷한
이장
##노에
Feat
##죽을
아오이
회ㅅㅏ
옆의
9개
성인이
동전
옮기는
ㅂㅣ행
재해
ㄱㅣ간
유로파
Summer
못했
시절을
모델인
##건에
##셨다
드러나는
캐릭터와
불ㄹㅣ
1983
White
워낙에
행방불명
캐나
##탈출
지력
##찮은
끼어
박해
알로
기간은
우승한
포스를
먹이를
윤종
스트리밍
든든
3호선
섭외
가슴에
##그린
두른
죄수
소셜
우명한
##트에게
##chn
Open
경로
##개념
마술사
침대
비잔
헬로
채권
##롭게도
필오한
##매매
얼핏
소재를
부추
상점에서
처ㄹㅣ
##학습
배에
급하게
떡밥을
죠합
던지
1급
말그대로
NAS
묘한
매스
섀도
##마드
최영
공고
야당
일으킨다
ㅎㅏ여
##무기를
##교장
제이슨
##other
번뇌
플랑
##본은
mathcal
##맞는
이적분류
비꼬
플로리다
본거
빠지고
세키
재밌는
뱌뀜
##철도의
로테이션
##거리에
쓰며
없었으나
단식
광탈
관련해
드리블
2009년에
양산형
이것으로
##샤갸
벌인다
##살로
살해한
부품을
사모
##ㄹㅏ가
쓸모가
##났댜
결방
##효의
방호
##시게
ㄷㅐ구
못했다는
불과한
방황
선택이
쉽지만
ㅇㅏ들
싫어한다
햐여
뿜어
근ㄱㅓ
항목의
속박
##아슬
것입니ㄷㅏ
Cap
못햐고
지방자치
현실은
##지어
##스부르크
##각은
마르코
ㅈㅏ동
햐늘
홍준
##ㅇㅔ만
직관
기록하면서
cm
끝내고
스윕
공간에
팔이
서열
재혼
전적으로
##부ㅌㅓ는
사슴
가축
호프
##상도
작업이
##워커
그렇듯이
여객철도
민정
쟈랑
##멘탈
전투력을
레벨은
성모
##1015
해주고
발전에
명녕
광선
방영한
데이빗
걸러
ㄹㅏㅇㅣ
##않고
##라이어
국가에서
세리
##빈은
장착된
괴물이
##iam
요청합니다
원산
파인
단체로
배우고
기념으로
덱이
설도
##76
캐슬
없ㄷㅏ고
격리
진영의
##새가
간편
깔끔한
호노
ㅎㅏ늘
낭만
독을
언ㅈㅔ
18세기
##되서
발트
유비트
##중대
##였다면
처리를
시간도
des
박사의
차단할
쥐어
##적이라고
##슈한
##냐와
승리했다
성기
안다
됴입
무겁
##호텔
절차를
치른
저를
밤을
편향
##적ㅇㅣ
##되다
ㅅㅏ진
단절
갑ㅈㅏ
리코
주립
귀를
뒤ㅇㅔ
##브레이
주장하였다
LCK
시간ㅇㅣ
소녀의
아델
베네수엘
저자
무리를
500원
##여셔
충실한
있으면서
옳은
Template
쥬얼
있으냐
##탈삼진
못하교
시장의
종착
인정한
영어판
하기에
##지역의
부려
##엘프
테스트를
보류
##gy
삼았다
##3명
4권
패배했다
##설에
PSP
그것에
질량
포니
있으ㄴㅏ
BIG
업쓸
묘지
장타
##무네
##very
속이
##ㄴㅏ의
2008년에
연결되는
폭발적인
글렌
어ㄷㅣ
열려
ㅈㅣ구
##태는
파괴하는
이윽
허브
채집
20세
연상시키는
내버려
대격
##쉬가
역ㄷㅐ
개념으로
서치
제의
두어
편ㅇㅣ다
공격시
김우
결정한다
정ㄹㅣ
##하려던
사망하였다
란스
스커
##예선
오징
이용한다
한마디
나이를
Ter
프로그램이다
시신을
사격을
##무역
##클래스
유능한
##훈과
니가
별료
주러
정거
##6명
숫자를
횟수가
##진영
##그룹의
레버
ABC
##오일
김세
일개
##ino
##카나
시켰
원동
행진
로비
한번씩
술에
ERA
모자를
##시드
틀이
보상이
설문
대응하는
KD
우월한
##콤보
나무를
##저것
##술은
##독을
성공하면
Po
##red
육박
제리
코로
##옥의
햐게
섬식
다니며
크ㄹㅣ스
디에
느껴지는
성취
수단을
정의의
지명을
##메탈
신관
감사하겠습니다
##공영
슬럼
관문
총학생
##지에게
주기적으로
28일에
##준비
##하기만
Nuvie
##보내
소대
원인으로
달에
##카에게
##ㄴㅐ고
이름에서
Ep
포시
손잡
CB
##적에
##마켓
선거를
주요한
사슬
아닌지
매진
생각도
리퍼
아들의
산을
성종
1907년
##왔으나
##UL
홈페이지에
나섰다
더구나
꼽히는
세균
호리
달ㄹㅕ
##테가
그립
스퍄
우는
IRTC
임용
케네
##oly
플레임
ㄱㅐ최
순간이
신드
##십ㅅㅣ오
서쪽으로
윤석
스ㅍㅏ
조ㅅㅏ
##단장
1982
ㄲㅓ
데에는
동등한
번역을
##피로
카가
##벨트
500만
입지가
애틀랜
샤이에
대적
염두에
각색
뭔지
##하는지
깨알
##설은
뭐야
반경
바라보는
야마모토
파우
##준과
오타쿠
츤데레
이르렀
모데
바뀌면서
미래에
갖교
팝픈뮤직
전개를
SG
후반에는
호전
살았다
기준에
존재감을
국장
없음을
킬을
★★★
##점도
포럼
##환과
영화관
레벨에
##대회에서
꽂아
밀라노
다르지
오소
Mc
##ler
##수단
손흥
##테면
##덩이
qu
시야를
##군인
##ㅅㅣ키는
물어보
못했ㄷㅏ
유튜브에
##우주연상
클리어하면
일간
##구단
술탄
최교의
운영에
요크
##전ㅇㅔ서
구멍을
##터테인먼
##우먼
가미
자연수
날은
##ㅇㅣㄱㅏ
여캐
확인된
정정
역대급
##격에
##담한
개미
중종
명곡
2011년에
않으면서
중앙일보
속도도
요우
공화당
심ㅈㅣ어
feat
줄임
찍으면
츠카
200만
잠ㅅㅣ
내서
소설의
ㅅㅣ간이
보기에는
4명이
얼터
##ㅎㅐ진
이하로
##ㄹㅏ서
이해하기
##니발
배경은
힐링
중량
선택하는
제겨
합계
위엄을
그나ㅁㅏ
밝힌다
##나오는
##적이지만
낳았다
##시노
말소
기록했고
독일이
료마
지커
인기는
카밀
바다의
돌격소총
##폭풍
볼넷을
여러분의
가져가
##정동
차는
솔저
사적
강타
출연진
슈행
크로아티아
##마당
데스크
며느
목걸
##스타인
스ㅋㅏ
무빙
조로
갑쟈기
이즈미
1ㅊㅏ
채굴
히드라
##해지면
이상적인
핸드폰
레이첼
##적이라는
휘말려
에반게리온
스몰
##ㅎㅔ
심지ㅇㅓ
사랑은
ver
별명으로
정전
코이
명령에
주민들은
##부분에
그놈
ISO
히데요
##주의가
분량이
빠진다
증권
1905년
성격에
못ㅎㅏ는
페인
중산
높으신
이어나
기록된
50분
르네상
텔ㄹㅔ
우아
냉전
##겨운
지역에서는
TCG
##일까
사용하였다
주위를
야주
폭이
10번
##D의
직업은
되었기
##케이드
거처
효율적인
실장
편이ㄷㅏ
강연
##암동
Hun
누락
개더링
##했다교
흠좀무
앤디
상경
##adal
아시안컵
표ㅅㅣ
TP
충성을
여덟
만들기도
몰입
그나먀
남용
##공작
ㅇㅕ담으로
주어지는
지구로
간격으로
일컬
6대
못햐는
##위한
##광장
거제
불로
SW
##ura
이르기까지
타협
튜토리얼
페리
1대1
이햐
말씀을
유타
6성
되나
찍힌
부리는
모습ㅇㅣ
투수가
신병
알려주는
생기면
가구
항공사
국경을
다는
##테라
망한
인근의
IRTC1015
구지
근쳐
중대한
##1번
법정동
##비도
휴식을
##튼을
바스
즐겁게
##약품
프로듀싱
시스템에
투하
##4명
명백히
성수
음악에
사용자토론
차례로
관리가
쟈체가
신라의
1점을
링크문
리턴
임창
##청장
묘ㅅㅏ
이때의
##ks
모른다고
이들도
시리즈에서는
구급
프랑켄
해저
와타나베
무협
형을
인됴
##천동
분위기는
리그를
##1회
버려진
화약
##전에ㅅㅓ
##정리
##fl
##층은
없이도
그라운드
##rain
막부
##블루
세계는
부사
##번역
##양과
자료가
1년에
방면으로
##키에게
클리블
ㄱㅏ지
2007년에
##화되는
프로토타입
자리는
out
상태에서는
기업인
##TN
정신적으로
쏘면
만약에
입맛
가위
롤러
독립된
EMP
꼭두
미얀
근ㅊㅓ
해당된다
더러운
냐탸
석탄
짐을
##aby
살았던
시도해
##oul
##쌔신
패트
달랴
안ㅇㅔ
##tim
만큼은
##III
뛰쳐
디오
안치
심어
등용
부자
브릿
브라더
Arm
##래는
신종
특촬
패한
우물
##nder
##살에
상당수가
삼척
도망쳐
발효
##티와
수식
키는
인스턴
설립되었다
츠루
일가
않았습니다
##보건
연기한
소환한
프로그램은
깡패
스폰서
##테츠
고안
입지를
뵤교
##ersion
것만으로도
##너와
추가적으로
일쑤
제멋
##스탕
전태
검사를
스팅
##죠차
유사하다
동료로
##차트
냐무
##됐댜
스나이퍼
규정이
대회의
##자리에
사회를
ㅊㅓ리
분명한
서술한
기량을
발음을
기술과
##락은
1챠
갈고
어기에
예정이었으나
ㅍㅐ배
않ㄱㅔ
##국적
낡은
ㄴㅏㅌㅏ
##망에
##방지
뿐이고
탈당
##면허
소유하고
대도시
불에
포트리스
Fri
대두
프ㄹㅔ
콩고
전적이
##hel
동갑
Drag
못하지만
##증권
##평이
##점ㅇㅣ
##날의
바리에이션
펼치는
##현악
번역한
의사가
논의가
드러낸
컴푸
애를
부ㅇㅕ
##퇴근
##64
덱의
##리ㅋㅏ
방영되었다
있습ㄴㅣㄷㅏ
어느새
애드
베이스로
##ague
조달
##쇼의
WH
##거다
자체갸
Colle
아깝
##웨이브
방벽
환경이
##해졌고
친하게
탐욕
애덤
바로는
퍄이
##L의
##쓰기
유난히
유니폼을
##리그에서
섬으로
학생들에게
4집
공사를
##애니
콜린
##단위
버리
연구원
얼굴은
보ㄴㅣ
도시는
NuvieK
영상에
카디
스페인어
대관
에피쇼드
##하되
##IGH
하와이
9번
Fem
루피
교명
익산
무능
##게요
##라디오
탑재한
너와
Mac
##듈럼
유럽에서
이루어지는
쿠니
##건물
VIP
쓸데없이
질풍
보기는
##토로
심포
첩보
합류한
www
##STER
##스테르
경량
마음은
##쿠와
덩치
##ㅇㅣ란
아이템으로
없어졌다
격렬한
사의
순위는
승강장의
WCS
ㄱㅏ족
기차
##움은
ㄱㅔ임을
##무니
스토리에
달콤한
독서
둥근
나서서
추석
순간적으로
근위
손꼽히는
박주
##2회
책이
성동
벌이고
구조로
##3회
판사
높댜
##2로
귀하의
기사의
5권
수강
스냅
##ㅁㅏ의
블리자드
배상
결정하는
↓↘→
10일에
감당
교내
대부
##직할
ㅇㅣㅇㅓ
공격하면
##경기장
넣지
리플렉
좋았
##용자
지방도
고추
들리는
양심
CA
##레아
도시가
##게이
신봉
다이나
대하는
ㅎㅐ외
Happ
징징
##씨와
구간의
NS
신세가
##1명
##왕에
걷는
안장
##CH
접한
RS
1박
옮겼다
카메라를
거두며
아ㄴㅣ다
도입된
##몬은
스타트
지침을
리에
이야기의
##탄에
황당한
10명
타일
CON
앞둔
우리들의
유용하게
공격도
드러가
라이선스
폼을
2018년에
번은
RAW
##길에
끌여
동위
때나
총으로
관직
##하느라
##ift
가변
아타
##쉬는
아니ㄷㅏ
ㅇㅕ전히
##래가
네이션
수갸
기체를
겪었다
도리어
밴픽
휴가
자금을
##상태로
친구들이
단번에
기운
20초
연구하는
수복
ㅇㅏ니다
샤진
##민족행위
##선발
co
대영
전국동시
센서
앨리
들자면
라파
완수
가다
##크리트
시즌은
자문
##결한
##책이
##측에서
27일에
2ㅅㅔ
Rad
세일
##ka
외무
##레티
##판인
압둘
항목은
부원
대북
최연소
Leedors
주어진다
파괴할
##킹이
다이묘
제19대
##인형
촬영한
7화
외엔
##됐ㄷㅏ
프렌즈
##해버린다
걸려서
왕립
여전ㅎㅣ
##시ㅋㅣ는
준비한
##조챠
##해머
박은
조승
첨부
ㅂㅓ전
볼프
강변
한결
##토벤
민감한
본선의
예전의
교ㅊㅔ
ㅇㅣ제
##더와
많았지만
신성한
대체할
긍정적으로
기체가
##교실
##퍼런스
타다
펜듈럼
크로니클
##공격이
본디
담당했다
##였습니다
##oad
부대는
##싸움을
퀘스트가
○○
##조약
박태
##ya
강력하다
설명하고
점령한
높ㄷㅏ
때마침
활약했다
불분명
1개를
지정되어
나라는
제천
데려가
따왔다
##산맥
출연하는
유고슬라
유ㅅㅏ
마음으로
모드는
승천
참사
확정지
리부트
선우
8화
글에
논란의
1ㄱㅐ의
##퀘스트
패트릭
##히면서
##ning
세상이
설명에
개찰
##끝에
슬래
정크
##베르토
##민쥬
##게임을
섹스
효과적으로
##즈에게
전성기를
외야수
상장
않더라도
박원
225
들어가기
##ita
마지막까지
가방
시초
##철을
입시
##요청
파ㅇㅣ
잠들
아무렇
Max
밖에도
##군ㅇㅣ
##이라기
Gold
청주시
##당하게
스킬에
범인이
동작을
칭송
##으료서
신원
사역
통영
##GATE
##ICE
알코올
부모가
내어
##런을
피해는
일어나고
행동으로
비명
6명
놀고
링크가
차가운
스킬과
괴인
시점이
##so
밀접한
협정
반지를
##옷을
실체
4천
볼리
Val
알아차
설정되어
12개
ㅇㅐㄴㅣ
##어인
파산
데ㅇㅣ
선물로
쿠르
넘지
백화점
정몽
퍼붓
번째는
1908년
장착할
아테네
형인
피에르
주변에는
분쟁을
DJMAX
전복
운영진
이때문에
던지고
구르
##사구
값이
앉은
beat
##처의
##우스와
팔고
##정류
향년
마야
올ㄹㅕ
##령과
되었교
파도
선장
1달
황제를
##불능
뷰정
일직
##말은
전투로
총재
ㄸㅐ문이다
##바흐
##A는
뮤슨
각성한
MX
##보도
거치
김소
자처
그냐마
ㅅㅣ험
VPNGATE
기력
구조물
go
갸족
진을
휴지
기사에
결승에
복종
물리적
찰리
뱌람에
말입니다
지적이
길은
보였던
다름아닌
하이브리드
1은
##ki
부정적
결별
##날로그
아산
##규에
때문ㅇㅣ다
엔딩이
쾌속
독도
도르트문
##비스를
난폭
##제에서
국토교통
##AE
출전했다
종류는
속도와
뵤니
해밀
##ㄴㅑ고
##뜨린
출전해
ㅈㅣ하
튼튼한
##돼지
활약할
사칭
Fi
어플
타지
공천
티베트
##이요
탈출한
직원이
철학자
밸런스를
달라붙
##모한
떨어지면
공속
독백
##ㅎㅏ기를
사이트에서
대해셔
건축물
##먹는다
Inter
매력을
##킨스
##검은
##이랴교
괴멸
태ㅇㅓ
협력을
보던
기본적으로는
동료가
저질렀
##스ㄹㅓ운
나ㅁㅓ
상품을
윤치
##진다는
AE
에일리언
##슈갸
리나
토로
놓인
선택하면
한때는
아벨
때문이ㄷㅏ
학위
애정을
이북
M1
##년을
시외버스
나레이션
둥글
보여주기도
지배를
##코치
##오오
벼전
늘어나고
18일에
te
밤이
냐중에
식으료
##하였기
##한테는
두가지
루이지
##짐을
메시지
##rit
날아가는
##예가
상황에서는
보ㅇㅕ주
메르세
입으로
##복합